
unsigned char g_magic_wand_model_data[] = {
0x1c, 0x00, 0x00, 0x00, 0x54, 0x46, 0x4c, 0x33, 0x14, 0x00, 0x20, 0x00, 
  0x1c, 0x00, 0x18, 0x00, 0x14, 0x00, 0x10, 0x00, 0x0c, 0x00, 0x00, 0x00, 
  0x08, 0x00, 0x04, 0x00, 0x14, 0x00, 0x00, 0x00, 0x1c, 0x00, 0x00, 0x00, 
  0x1c, 0x00, 0x00, 0x00, 0x74, 0x00, 0x00, 0x00, 0x34, 0x2e, 0x00, 0x00, 
  0x44, 0x2e, 0x00, 0x00, 0xf4, 0x3d, 0x00, 0x00, 0x03, 0x00, 0x00, 0x00, 
  0x00, 0x00, 0x00, 0x00, 0x02, 0x00, 0x00, 0x00, 0x34, 0x00, 0x00, 0x00, 
  0x04, 0x00, 0x00, 0x00, 0xdc, 0xff, 0xff, 0xff, 0x12, 0x00, 0x00, 0x00, 
  0x04, 0x00, 0x00, 0x00, 0x13, 0x00, 0x00, 0x00, 0x43, 0x4f, 0x4e, 0x56, 
  0x45, 0x52, 0x53, 0x49, 0x4f, 0x4e, 0x5f, 0x4d, 0x45, 0x54, 0x41, 0x44, 
  0x41, 0x54, 0x41, 0x00, 0x08, 0x00, 0x0c, 0x00, 0x08, 0x00, 0x04, 0x00, 
  0x08, 0x00, 0x00, 0x00, 0x11, 0x00, 0x00, 0x00, 0x04, 0x00, 0x00, 0x00, 
  0x13, 0x00, 0x00, 0x00, 0x6d, 0x69, 0x6e, 0x5f, 0x72, 0x75, 0x6e, 0x74, 
  0x69, 0x6d, 0x65, 0x5f, 0x76, 0x65, 0x72, 0x73, 0x69, 0x6f, 0x6e, 0x00, 
  0x13, 0x00, 0x00, 0x00, 0xbc, 0x2d, 0x00, 0x00, 0xb4, 0x2d, 0x00, 0x00, 
  0x9c, 0x2d, 0x00, 0x00, 0x64, 0x2d, 0x00, 0x00, 0x54, 0x19, 0x00, 0x00, 
  0xc4, 0x18, 0x00, 0x00, 0xb4, 0x06, 0x00, 0x00, 0x64, 0x06, 0x00, 0x00, 
  0xd4, 0x01, 0x00, 0x00, 0xa4, 0x01, 0x00, 0x00, 0xbc, 0x00, 0x00, 0x00, 
  0xb4, 0x00, 0x00, 0x00, 0xac, 0x00, 0x00, 0x00, 0xa4, 0x00, 0x00, 0x00, 
  0x9c, 0x00, 0x00, 0x00, 0x94, 0x00, 0x00, 0x00, 0x8c, 0x00, 0x00, 0x00, 
  0x6c, 0x00, 0x00, 0x00, 0x04, 0x00, 0x00, 0x00, 0xf6, 0xd1, 0xff, 0xff, 
  0x04, 0x00, 0x00, 0x00, 0x58, 0x00, 0x00, 0x00, 0x0c, 0x00, 0x00, 0x00, 
  0x08, 0x00, 0x0e, 0x00, 0x08, 0x00, 0x04, 0x00, 0x08, 0x00, 0x00, 0x00, 
  0x10, 0x00, 0x00, 0x00, 0x28, 0x00, 0x00, 0x00, 0x00, 0x00, 0x06, 0x00, 
  0x08, 0x00, 0x04, 0x00, 0x06, 0x00, 0x00, 0x00, 0x04, 0x00, 0x00, 0x00, 
  0x01, 0x00, 0x00, 0x00, 0xeb, 0x03, 0x00, 0x00, 0x00, 0x00, 0x0a, 0x00, 
  0x10, 0x00, 0x0c, 0x00, 0x08, 0x00, 0x04, 0x00, 0x0a, 0x00, 0x00, 0x00, 
  0x03, 0x00, 0x00, 0x00, 0x02, 0x00, 0x00, 0x00, 0x04, 0x00, 0x00, 0x00, 
  0x06, 0x00, 0x00, 0x00, 0x32, 0x2e, 0x31, 0x34, 0x2e, 0x31, 0x00, 0x00, 
  0x5a, 0xd2, 0xff, 0xff, 0x04, 0x00, 0x00, 0x00, 0x10, 0x00, 0x00, 0x00, 
  0x31, 0x2e, 0x31, 0x34, 0x2e, 0x30, 0x00, 0x00, 0x00, 0x00, 0x00, 0x00, 
  0x00, 0x00, 0x00, 0x00, 0xf0, 0xc3, 0xff, 0xff, 0xf4, 0xc3, 0xff, 0xff, 
  0xf8, 0xc3, 0xff, 0xff, 0xfc, 0xc3, 0xff, 0xff, 0x00, 0xc4, 0xff, 0xff, 
  0x04, 0xc4, 0xff, 0xff, 0x8e, 0xd2, 0xff, 0xff, 0x04, 0x00, 0x00, 0x00, 
  0xd8, 0x00, 0x00, 0x00, 0xe3, 0x41, 0xc9, 0xd4, 0x4e, 0x9d, 0xe9, 0x00, 
  0xc4, 0xc1, 0x76, 0xc0, 0xcf, 0x7f, 0x84, 0xee, 0x19, 0xe1, 0x0c, 0xed, 
  0xca, 0x0a, 0x58, 0xc7, 0x49, 0x48, 0xb2, 0xe3, 0x71, 0xf8, 0xf9, 0x3d, 
  0xc1, 0x41, 0xdc, 0xba, 0x29, 0x7d, 0xb7, 0x6b, 0x7f, 0xe2, 0x44, 0x5b, 
  0x91, 0x43, 0xf1, 0xd4, 0x3a, 0x14, 0x9d, 0x69, 0x44, 0x8e, 0x1d, 0x19, 
  0xc6, 0x33, 0x22, 0x87, 0x10, 0x09, 0xae, 0x3b, 0x07, 0xaa, 0x47, 0x40, 
  0x8d, 0x2d, 0x41, 0x81, 0x3b, 0x4b, 0xd9, 0x3a, 0x3b, 0xaf, 0x42, 0x16, 
  0xbb, 0x52, 0xf5, 0x27, 0x64, 0xf4, 0x41, 0x6d, 0xf3, 0x1d, 0x70, 0xf9, 
  0x28, 0x7f, 0xeb, 0x4f, 0x51, 0xfe, 0x4a, 0x3c, 0xf5, 0x5e, 0x52, 0xf8, 
  0x64, 0x54, 0xef, 0x2c, 0xaa, 0x7f, 0x18, 0xa0, 0x5e, 0x23, 0xc7, 0xf0, 
  0xe0, 0xc4, 0x4c, 0xd5, 0xaa, 0x73, 0x02, 0xa4, 0x35, 0x31, 0xc4, 0x52, 
  0x00, 0xa4, 0x61, 0x31, 0xec, 0x08, 0xbf, 0x0a, 0xff, 0x62, 0xdf, 0x22, 
  0x50, 0xe3, 0x1c, 0x59, 0xd6, 0x40, 0x71, 0xe3, 0x3e, 0x77, 0xee, 0x25, 
  0x4c, 0xd6, 0x34, 0x59, 0xca, 0x36, 0x7f, 0xf1, 0x04, 0x4e, 0xbe, 0xec, 
  0xd6, 0xcc, 0x23, 0xe7, 0x03, 0x44, 0xd8, 0x81, 0x09, 0xaf, 0xd1, 0x2d, 
  0xb5, 0x02, 0x45, 0xf3, 0xf4, 0xb4, 0xbc, 0xe9, 0x2b, 0xbd, 0xf0, 0x2f, 
  0xf8, 0xdf, 0x4a, 0x04, 0xd1, 0x5c, 0xfc, 0xa3, 0x71, 0xa7, 0x9a, 0x75, 
  0xb2, 0xcb, 0x7f, 0xa9, 0x06, 0x47, 0xdd, 0xf2, 0x4c, 0xf9, 0x0c, 0x62, 
  0xb3, 0x20, 0x4a, 0xf6, 0x72, 0xd3, 0xff, 0xff, 0x04, 0x00, 0x00, 0x00, 
  0x20, 0x00, 0x00, 0x00, 0xe5, 0xff, 0xff, 0xff, 0x74, 0x02, 0x00, 0x00, 
  0xa2, 0x00, 0x00, 0x00, 0x08, 0x06, 0x00, 0x00, 0x7a, 0x16, 0x00, 0x00, 
  0xcf, 0xff, 0xff, 0xff, 0x4f, 0x16, 0x00, 0x00, 0xe5, 0x02, 0x00, 0x00, 
  0x9e, 0xd3, 0xff, 0xff, 0x04, 0x00, 0x00, 0x00, 0x80, 0x04, 0x00, 0x00, 
  0x58, 0x43, 0x1f, 0xb1, 0x34, 0xe5, 0x04, 0x3d, 0x1d, 0x17, 0x4d, 0xd4, 
  0x24, 0x1d, 0x10, 0x40, 0x31, 0x05, 0x49, 0xe4, 0xf3, 0xd6, 0x31, 0x0a, 
  0x4b, 0x40, 0x4f, 0x95, 0xfc, 0x15, 0x41, 0x46, 0x7f, 0x62, 0x7c, 0xd6, 
  0x04, 0xfa, 0x35, 0x48, 0x44, 0x2d, 0x68, 0xd7, 0x0a, 0xd5, 0xf5, 0x3b, 
  0x40, 0x18, 0x14, 0xdc, 0x13, 0x0d, 0x33, 0x2c, 0x4d, 0x4c, 0x48, 0x21, 
  0x2f, 0x0f, 0x44, 0x52, 0x1b, 0x2d, 0x53, 0x20, 0xd7, 0xcc, 0xca, 0x01, 
  0x0c, 0x20, 0x42, 0xab, 0x21, 0xef, 0x33, 0x06, 0x67, 0x34, 0x2e, 0xb0, 
  0x3b, 0x08, 0x5d, 0x36, 0x2f, 0x25, 0x11, 0xb5, 0x37, 0xfc, 0x2f, 0x23, 
  0x1f, 0x12, 0xfe, 0x87, 0x2d, 0xd2, 0x2b, 0x22, 0x6d, 0x35, 0x10, 0x81, 
  0x44, 0xfc, 0x6d, 0x44, 0x48, 0x07, 0x1a, 0xc7, 0x3b, 0x08, 0x25, 0x3c, 
  0x01, 0x0b, 0xf0, 0xad, 0xf1, 0xed, 0x0f, 0x0a, 0x26, 0x2b, 0x1f, 0xb3, 
  0x34, 0xde, 0x43, 0x1d, 0x0e, 0x13, 0x03, 0xcd, 0x12, 0xfb, 0x2a, 0x20, 
  0xc5, 0xcb, 0x03, 0x4c, 0x12, 0xef, 0xdb, 0xb9, 0xe7, 0xc1, 0xd3, 0x23, 
  0x04, 0xed, 0x38, 0xe5, 0xf1, 0x01, 0xdb, 0x04, 0xfc, 0x18, 0x17, 0x29, 
  0x91, 0x9a, 0xd7, 0x58, 0x0c, 0x1d, 0xdc, 0xb4, 0xa6, 0xda, 0xe9, 0x77, 
  0x1f, 0x5d, 0x02, 0x11, 0x0b, 0x0d, 0xd8, 0x44, 0x1d, 0x26, 0x3e, 0x20, 
  0x9f, 0xbc, 0xd3, 0x18, 0x16, 0x4e, 0xec, 0xc0, 0xd8, 0xa8, 0xf6, 0x22, 
  0x05, 0x7f, 0x3b, 0xea, 0xef, 0x04, 0xfd, 0x3d, 0x21, 0x6a, 0x3c, 0x0b, 
  0x10, 0x1c, 0x29, 0x07, 0x3b, 0x66, 0xdb, 0x24, 0x29, 0x38, 0x30, 0x53, 
  0x42, 0x7b, 0x18, 0x11, 0x26, 0x36, 0x10, 0x20, 0x26, 0x50, 0xd7, 0x07, 
  0x2d, 0x1f, 0x1b, 0x19, 0xf8, 0x30, 0xd4, 0x23, 0x0c, 0x17, 0x4d, 0x4e, 
  0x34, 0x6f, 0x0e, 0x08, 0x1e, 0x31, 0x12, 0x7f, 0xe6, 0x4c, 0xbd, 0x03, 
  0xdd, 0xdc, 0xda, 0xd6, 0x22, 0xde, 0xed, 0x18, 0xfb, 0xee, 0xdc, 0x3d, 
  0x23, 0x2d, 0x03, 0x20, 0xef, 0xed, 0x01, 0x61, 0xe0, 0x10, 0xcf, 0xe6, 
  0x28, 0x10, 0xdc, 0x12, 0x0f, 0x42, 0x0d, 0x1c, 0xf9, 0x28, 0xf7, 0x20, 
  0x58, 0x34, 0xe1, 0xf3, 0xe6, 0xf6, 0x28, 0xf5, 0xf3, 0x5f, 0x19, 0xf1, 
  0xeb, 0x07, 0x18, 0x08, 0x01, 0x08, 0x05, 0x03, 0x3c, 0x49, 0xfb, 0xc2, 
  0x3f, 0x21, 0x7f, 0x39, 0x22, 0x24, 0x25, 0xab, 0x5c, 0x16, 0x4c, 0x35, 
  0xa2, 0xa0, 0xc1, 0xce, 0xa4, 0x92, 0xad, 0x87, 0x2c, 0x06, 0x2c, 0xb7, 
  0xec, 0xaf, 0x7f, 0x52, 0x7f, 0x70, 0x4f, 0xb8, 0x39, 0xe4, 0x25, 0x6e, 
  0xe1, 0x1d, 0xd2, 0x48, 0x1e, 0x54, 0xdd, 0xf5, 0xf3, 0x1d, 0xfb, 0x04, 
  0x38, 0x6d, 0xdc, 0x2b, 0x19, 0x22, 0xfa, 0xdb, 0x3c, 0x49, 0xe1, 0x1f, 
  0xd8, 0x13, 0xcf, 0x64, 0x12, 0x7f, 0xd6, 0xe6, 0xe0, 0x12, 0xf3, 0x29, 
  0x25, 0x73, 0xcf, 0x02, 0x25, 0x23, 0x12, 0x41, 0xf6, 0x2b, 0xc5, 0x30, 
  0xe6, 0xee, 0xea, 0x2d, 0x0b, 0x5d, 0xda, 0xf5, 0xda, 0x09, 0xd1, 0x26, 
  0x2e, 0x63, 0xcf, 0xff, 0xe8, 0x02, 0xd8, 0x12, 0x07, 0x24, 0xfa, 0xeb, 
  0x2b, 0x1f, 0xfd, 0xc6, 0x37, 0x0f, 0x27, 0x19, 0xff, 0xfb, 0xf6, 0xcd, 
  0x4a, 0x16, 0x48, 0x3d, 0x05, 0x19, 0x14, 0xde, 0x31, 0x37, 0x15, 0x2e, 
  0x1c, 0x1a, 0xde, 0xad, 0x32, 0x00, 0x3f, 0x26, 0x45, 0x09, 0x1b, 0x81, 
  0x4e, 0x1b, 0x62, 0x31, 0x1d, 0x3b, 0xf8, 0xaa, 0x3f, 0x04, 0x2e, 0x11, 
  0x08, 0x1a, 0xe2, 0xbf, 0x22, 0x07, 0x21, 0xf9, 0x0c, 0x13, 0xfd, 0x98, 
  0x06, 0x04, 0x18, 0x1a, 0x27, 0x34, 0x00, 0xd1, 0xf3, 0xd8, 0x4d, 0x24, 
  0xf2, 0xe8, 0xfa, 0xf1, 0x1c, 0x34, 0x26, 0x0c, 0x29, 0xf6, 0xe7, 0x81, 
  0x35, 0x09, 0x35, 0x03, 0x1c, 0xbb, 0xf3, 0xce, 0x28, 0x04, 0xf4, 0x02, 
  0x3e, 0x0f, 0x02, 0xb7, 0x3c, 0x43, 0x25, 0x44, 0x19, 0xef, 0x2a, 0x91, 
  0x63, 0x12, 0x40, 0x28, 0x3a, 0xf4, 0x19, 0xa5, 0x28, 0x19, 0x18, 0x19, 
  0x05, 0x15, 0x1b, 0xa6, 0x04, 0x38, 0x37, 0x47, 0x50, 0x45, 0x2a, 0xdc, 
  0x3b, 0x41, 0x4a, 0x46, 0x18, 0x04, 0xcd, 0xea, 0x2b, 0x0c, 0xcd, 0xf9, 
  0x01, 0x12, 0x16, 0x12, 0x12, 0x48, 0x2e, 0x2e, 0x1c, 0xd6, 0xcd, 0xbb, 
  0x2e, 0x0e, 0xdc, 0xeb, 0x18, 0xf3, 0x15, 0xc5, 0x21, 0xe5, 0xf8, 0x1c, 
  0x3b, 0x0f, 0xfe, 0xf0, 0x4b, 0x5b, 0xe7, 0x10, 0x18, 0x05, 0xe3, 0x1f, 
  0x41, 0x7f, 0xc9, 0x02, 0xf6, 0x0e, 0x1e, 0x25, 0x09, 0x51, 0xd0, 0x05, 
  0x18, 0x25, 0x05, 0xfe, 0x38, 0x4d, 0xf1, 0x1c, 0x18, 0x16, 0xee, 0xff, 
  0x3c, 0x58, 0xcc, 0x1e, 0x16, 0xff, 0xce, 0xf8, 0xf8, 0x1e, 0xec, 0x0a, 
  0x0e, 0x00, 0x22, 0xe4, 0x02, 0xe8, 0xfa, 0xee, 0x11, 0x1a, 0x18, 0xcf, 
  0x0c, 0xdc, 0x17, 0x0d, 0x28, 0x07, 0x41, 0xdd, 0xfe, 0xf3, 0xf4, 0x33, 
  0x32, 0x31, 0x16, 0xd9, 0x1c, 0xd4, 0x05, 0x30, 0x55, 0x6d, 0x7f, 0xeb, 
  0x0a, 0xf3, 0x32, 0x5d, 0x33, 0x5c, 0x65, 0x05, 0x15, 0x05, 0x27, 0x2f, 
  0x22, 0x0f, 0x22, 0x07, 0xf6, 0x03, 0x13, 0xfe, 0x37, 0x25, 0x65, 0x19, 
  0xe4, 0xea, 0x1d, 0x28, 0x12, 0x39, 0x4f, 0x25, 0x1a, 0x12, 0xee, 0x2d, 
  0x1b, 0x1a, 0xfb, 0xb4, 0x48, 0x3f, 0x21, 0x35, 0x3a, 0x01, 0xdb, 0xb4, 
  0x4d, 0x3b, 0x49, 0x29, 0xf8, 0xee, 0xfe, 0x97, 0x0f, 0xec, 0x4e, 0x21, 
  0x30, 0x23, 0xf0, 0xa6, 0x4e, 0x2a, 0x7f, 0x52, 0x28, 0x29, 0x0e, 0x8a, 
  0x55, 0xfe, 0x45, 0x4f, 0x02, 0xe0, 0xd1, 0x81, 0x22, 0xb7, 0x18, 0xfa, 
  0x1c, 0x47, 0x21, 0xb8, 0x0c, 0xfa, 0x34, 0x3c, 0x21, 0x30, 0x1f, 0x96, 
  0x47, 0xdb, 0x2e, 0x0a, 0xd3, 0xc3, 0xc4, 0xb1, 0xeb, 0xa5, 0x0a, 0xc1, 
  0x26, 0x44, 0x7f, 0xfd, 0x2b, 0xf2, 0x38, 0x2e, 0x3b, 0x54, 0x50, 0x31, 
  0x24, 0xd2, 0x23, 0x2e, 0x2e, 0x4d, 0x48, 0x3b, 0xfe, 0xd4, 0x0d, 0x36, 
  0x32, 0x60, 0x37, 0x36, 0x1a, 0xc7, 0x18, 0x37, 0x12, 0x52, 0x57, 0x70, 
  0xb9, 0xa4, 0x05, 0xe4, 0xfb, 0x3f, 0x45, 0x5b, 0xce, 0xb6, 0xf1, 0xe8, 
  0x29, 0x1e, 0x3d, 0x5e, 0x14, 0xf8, 0xee, 0x0a, 0xe0, 0x27, 0x31, 0x7f, 
  0xaf, 0xd9, 0xf5, 0xd0, 0xc1, 0xf6, 0x1f, 0x6b, 0xc9, 0xa1, 0x01, 0xb4, 
  0x3e, 0x22, 0x04, 0xc5, 0x56, 0x15, 0x2b, 0x45, 0x09, 0xee, 0xdc, 0xdb, 
  0x02, 0x0c, 0x0a, 0x01, 0xf6, 0xc5, 0xcd, 0xc1, 0xff, 0xa0, 0x18, 0xc3, 
  0x2a, 0x0c, 0xf9, 0xdf, 0x5a, 0x39, 0x31, 0x4e, 0x0e, 0xcd, 0xdf, 0xf4, 
  0x35, 0xf1, 0x14, 0xdd, 0xe9, 0x95, 0x81, 0xdb, 0xf8, 0xb4, 0x18, 0xdb, 
  0x4b, 0x15, 0xf0, 0x01, 0x57, 0x0b, 0x1b, 0x37, 0x0d, 0xda, 0xfe, 0xfe, 
  0x05, 0xce, 0xee, 0xf8, 0xf7, 0xf4, 0x0f, 0xdb, 0xe9, 0xc8, 0x41, 0xd6, 
  0xf6, 0x24, 0xee, 0xd4, 0x3b, 0x08, 0xee, 0x0f, 0x35, 0xf5, 0x19, 0xa7, 
  0x5d, 0x32, 0x01, 0x20, 0x28, 0x02, 0x14, 0x9d, 0x15, 0x33, 0x55, 0x48, 
  0x0e, 0x1d, 0x02, 0xbe, 0x32, 0xf9, 0x11, 0x2c, 0x5e, 0xf8, 0x19, 0x91, 
  0x4c, 0x1c, 0x6b, 0x49, 0x4e, 0x2c, 0xef, 0x81, 0x34, 0x0e, 0x51, 0x3f, 
  0xec, 0x14, 0xce, 0xdc, 0xf3, 0x08, 0x06, 0x01, 0x23, 0x17, 0x09, 0x9b, 
  0x41, 0x01, 0x57, 0x25, 0x42, 0x24, 0x1c, 0x87, 0x3c, 0xf8, 0x3c, 0x53, 
  0x1d, 0x05, 0xed, 0xb9, 0x28, 0xf1, 0xfa, 0x30, 0x38, 0x05, 0xd5, 0x97, 
  0x62, 0x30, 0x1f, 0x1e, 0x3a, 0xe5, 0xf4, 0xb1, 0x2f, 0x2f, 0x11, 0x35, 
  0xf4, 0xd6, 0xd7, 0xe4, 0x27, 0x0f, 0xfd, 0xe0, 0x11, 0x16, 0xfd, 0xa1, 
  0x7f, 0x4e, 0x09, 0x52, 0x40, 0x0c, 0xb8, 0xa2, 0x3f, 0x4d, 0xf0, 0x3b, 
  0x1a, 0xe8, 0xe8, 0xe0, 0x24, 0x29, 0x0a, 0xfe, 0x3f, 0x27, 0x07, 0xd3, 
  0x6a, 0x45, 0x18, 0x34, 0xe6, 0x24, 0x12, 0xf8, 0x07, 0x24, 0xdf, 0x3a, 
  0x15, 0xcb, 0xfc, 0x18, 0xee, 0x02, 0xef, 0x11, 0x42, 0xe1, 0xe4, 0xad, 
  0x01, 0xf7, 0x79, 0x01, 0xc9, 0x01, 0x0a, 0x8a, 0xdf, 0xca, 0xfd, 0xfd, 
  0x49, 0x5d, 0x2c, 0xf8, 0x32, 0x21, 0x28, 0x22, 0x76, 0x2c, 0x7f, 0x1e, 
  0x30, 0x70, 0x19, 0x61, 0x37, 0xf0, 0x52, 0x9b, 0x41, 0xde, 0x42, 0x22, 
  0x2f, 0x33, 0x23, 0x0a, 0x07, 0xeb, 0x6b, 0xf7, 0x0c, 0x60, 0x69, 0x77, 
  0x3c, 0x25, 0x09, 0x5d, 0xf6, 0x10, 0xea, 0x39, 0xfe, 0xe7, 0xc8, 0xe6, 
  0x2a, 0xd8, 0xff, 0xff, 0x04, 0x00, 0x00, 0x00, 0x40, 0x00, 0x00, 0x00, 
  0x37, 0xfb, 0xff, 0xff, 0xe8, 0x03, 0x00, 0x00, 0xe8, 0x0b, 0x00, 0x00, 
  0x54, 0xfe, 0xff, 0xff, 0x77, 0x01, 0x00, 0x00, 0xd9, 0xfd, 0xff, 0xff, 
  0x69, 0x00, 0x00, 0x00, 0x76, 0x02, 0x00, 0x00, 0x70, 0xfd, 0xff, 0xff, 
  0x80, 0xfa, 0xff, 0xff, 0x48, 0x07, 0x00, 0x00, 0x2c, 0x05, 0x00, 0x00, 
  0x63, 0x08, 0x00, 0x00, 0x16, 0x01, 0x00, 0x00, 0x08, 0xfe, 0xff, 0xff, 
  0xae, 0x03, 0x00, 0x00, 0x76, 0xd8, 0xff, 0xff, 0x04, 0x00, 0x00, 0x00, 
  0x00, 0x12, 0x00, 0x00, 0x14, 0x0e, 0x81, 0xd4, 0x09, 0x06, 0x18, 0x0a, 
  0x17, 0xfb, 0x42, 0xf5, 0x2f, 0x14, 0x05, 0xef, 0x19, 0x2d, 0xaf, 0xe4, 
  0x12, 0xf6, 0x00, 0x06, 0xfc, 0x02, 0xfa, 0xb4, 0xd5, 0x27, 0x03, 0xf2, 
  0x0c, 0x31, 0xee, 0xfe, 0xf1, 0xfb, 0x0a, 0x0d, 0x04, 0x18, 0x06, 0xff, 
  0xe6, 0x07, 0x28, 0x2a, 0x0b, 0x0d, 0xbe, 0xd3, 0x09, 0xd5, 0x1a, 0xf3, 
  0xed, 0x1f, 0x14, 0xf0, 0xe9, 0x24, 0xf5, 0xf3, 0x04, 0x3d, 0x84, 0x09, 
  0x1b, 0xdc, 0x34, 0x06, 0x01, 0x2a, 0x2c, 0xe5, 0x1e, 0x0f, 0x1c, 0x01, 
  0xd7, 0x16, 0xe7, 0xf3, 0x41, 0xf4, 0x26, 0x07, 0x1b, 0xfd, 0x1f, 0xae, 
  0x26, 0x2a, 0x0e, 0xcc, 0x04, 0xec, 0xdf, 0xec, 0x01, 0xfa, 0x1c, 0x10, 
  0x0c, 0xdc, 0xf2, 0xff, 0xe2, 0xd8, 0x06, 0x1b, 0x01, 0x1d, 0xbb, 0xd5, 
  0x25, 0xe3, 0x2c, 0x15, 0xf8, 0x00, 0x2e, 0x09, 0x10, 0x07, 0x09, 0x09, 
  0xf2, 0x19, 0xe7, 0xee, 0x1e, 0xec, 0x12, 0x0d, 0xea, 0xf9, 0x24, 0xc1, 
  0x3c, 0x3a, 0x18, 0x15, 0x08, 0xdd, 0xd0, 0x48, 0xe1, 0x0d, 0x28, 0x22, 
  0xf9, 0xe2, 0x24, 0x10, 0x11, 0xef, 0xe5, 0x16, 0x22, 0x07, 0xfa, 0x11, 
  0x4d, 0xf2, 0x15, 0x0d, 0xf5, 0xfb, 0x14, 0xcc, 0xfe, 0x02, 0x17, 0xde, 
  0xfe, 0x0b, 0x10, 0x02, 0x35, 0x05, 0xf5, 0x14, 0xe6, 0x22, 0x12, 0x25, 
  0xbc, 0x16, 0xe9, 0xd8, 0x18, 0x18, 0x88, 0xd5, 0xe8, 0xf2, 0x28, 0x16, 
  0x05, 0x12, 0x3c, 0x1a, 0xfd, 0xfe, 0x0f, 0xe4, 0x36, 0x0b, 0x93, 0x08, 
  0x32, 0xa4, 0x10, 0xfc, 0xc0, 0x3b, 0x2a, 0x36, 0x02, 0x1a, 0xef, 0xf7, 
  0xeb, 0x39, 0xca, 0x0f, 0x2d, 0xe8, 0x2a, 0xe5, 0xec, 0xfe, 0x1e, 0xfb, 
  0xf4, 0x42, 0xf8, 0xd8, 0x20, 0xe5, 0xd8, 0xde, 0xc8, 0x27, 0xf7, 0x01, 
  0x1c, 0x07, 0xcb, 0x3f, 0x0c, 0xd6, 0xff, 0xf9, 0x2e, 0xea, 0xed, 0x13, 
  0xc4, 0xcf, 0xe3, 0xd6, 0x0f, 0x3c, 0xab, 0x7f, 0x0c, 0x9d, 0xfb, 0x08, 
  0x0c, 0x0a, 0x24, 0x0c, 0xe5, 0x0b, 0xce, 0xdd, 0xdf, 0x0d, 0xc5, 0x56, 
  0xc0, 0xe7, 0x35, 0xf8, 0xb2, 0xdf, 0x3e, 0x39, 0x29, 0x08, 0xf0, 0x04, 
  0x09, 0xde, 0xde, 0x07, 0x21, 0xc9, 0xe9, 0xd8, 0xe6, 0xd8, 0x54, 0x3f, 
  0x1d, 0x65, 0xec, 0x10, 0x07, 0xd4, 0xea, 0xac, 0xd2, 0xfd, 0xff, 0x11, 
  0x26, 0xe4, 0x37, 0x1c, 0xde, 0x15, 0xdc, 0xed, 0xf6, 0xf1, 0xfc, 0x06, 
  0xc3, 0xed, 0x05, 0x03, 0x15, 0x21, 0xe4, 0xc1, 0x35, 0x8d, 0x2b, 0xfe, 
  0xae, 0xf3, 0x1a, 0xdb, 0x0d, 0x54, 0x26, 0xf0, 0x0b, 0x4e, 0xb6, 0xdf, 
  0x44, 0x9e, 0x6f, 0x17, 0xdf, 0x17, 0x7f, 0xd8, 0x1f, 0x5c, 0xfa, 0xe5, 
  0xf9, 0x23, 0xa7, 0x11, 0x0e, 0xea, 0x16, 0x07, 0xf3, 0xf5, 0x26, 0xd9, 
  0x26, 0x1f, 0x1a, 0x0a, 0x16, 0x31, 0x25, 0xbd, 0x13, 0xde, 0x07, 0xf3, 
  0xc9, 0x12, 0x12, 0x0b, 0x1b, 0x1b, 0x1a, 0x00, 0xfc, 0x45, 0xf9, 0xd0, 
  0x1f, 0x8f, 0x37, 0x1e, 0xce, 0x1e, 0x49, 0x2a, 0x51, 0x06, 0xe8, 0x02, 
  0x01, 0x03, 0xd7, 0xdd, 0xf2, 0xe2, 0x2d, 0x0f, 0xf8, 0xe3, 0x23, 0x02, 
  0x18, 0x1a, 0x2d, 0xcd, 0x4b, 0x28, 0xd3, 0x1c, 0x15, 0x32, 0x1e, 0x11, 
  0x3d, 0x29, 0xe6, 0xc9, 0x0e, 0x26, 0x35, 0x39, 0xef, 0x06, 0x08, 0x47, 
  0x1c, 0x74, 0xfd, 0x25, 0x7f, 0xf0, 0x20, 0xa4, 0xf6, 0x06, 0x31, 0xe8, 
  0xf1, 0x06, 0xb6, 0x0c, 0x29, 0x52, 0x37, 0x3e, 0x27, 0x04, 0x13, 0x82, 
  0xd8, 0x3e, 0x1a, 0x1f, 0x24, 0xbd, 0xa9, 0xed, 0xea, 0xeb, 0xd6, 0x07, 
  0x0a, 0x52, 0xe9, 0x4c, 0xde, 0xf5, 0xc9, 0x1d, 0x37, 0x0f, 0x89, 0x2c, 
  0x01, 0xf1, 0xf2, 0x1f, 0x0b, 0x53, 0xc3, 0xe9, 0xa0, 0x26, 0xeb, 0x16, 
  0xff, 0xed, 0xbd, 0xfd, 0xde, 0x48, 0xf1, 0xfe, 0x0b, 0x1a, 0xea, 0x3e, 
  0xe7, 0x23, 0xda, 0xf5, 0x3e, 0xfb, 0xe2, 0x0a, 0xf6, 0x3a, 0x17, 0x00, 
  0x31, 0x49, 0xce, 0x44, 0xb2, 0xd8, 0xfd, 0x04, 0x26, 0xd4, 0x8d, 0xec, 
  0xd7, 0x23, 0xdf, 0x01, 0x09, 0x27, 0xa7, 0x2c, 0xa7, 0xec, 0x1e, 0xcf, 
  0x10, 0xee, 0xbc, 0x28, 0xf8, 0x1e, 0x17, 0xf6, 0x2c, 0x23, 0xd7, 0x0f, 
  0xae, 0xe0, 0x2a, 0xfa, 0x1d, 0x16, 0x1d, 0xfc, 0x20, 0xfa, 0x03, 0x15, 
  0x1f, 0x2a, 0x07, 0xca, 0x24, 0x0c, 0x2c, 0x2a, 0x35, 0xed, 0x1c, 0xfd, 
  0xfe, 0x02, 0x18, 0x09, 0x01, 0xf5, 0x44, 0x15, 0x1e, 0x21, 0xff, 0xfa, 
  0xfe, 0x15, 0x01, 0x23, 0x0b, 0xe8, 0xf5, 0xb8, 0xbd, 0xfe, 0xe3, 0x65, 
  0xe0, 0xd4, 0xc8, 0xcf, 0xe7, 0x17, 0x3f, 0x06, 0x25, 0x01, 0x23, 0xe3, 
  0xea, 0x30, 0xee, 0xea, 0xef, 0x39, 0x17, 0x10, 0x1d, 0xe8, 0xc7, 0x0f, 
  0xa1, 0x35, 0xfb, 0x1e, 0x3c, 0xee, 0x43, 0x4e, 0x47, 0xe3, 0x11, 0x37, 
  0xd1, 0xeb, 0x30, 0xf3, 0xe8, 0xbe, 0xc6, 0xc8, 0xb9, 0x31, 0x8f, 0x45, 
  0xa3, 0xdb, 0xbf, 0xd4, 0x23, 0x12, 0x13, 0x33, 0x2a, 0xfc, 0x19, 0xe7, 
  0x10, 0x24, 0xf7, 0x09, 0xde, 0x26, 0x0c, 0xef, 0xf8, 0xa8, 0xe3, 0xf8, 
  0x9c, 0x0d, 0xb5, 0xc4, 0x1a, 0xbf, 0xdd, 0x66, 0x2d, 0xa3, 0xb4, 0x07, 
  0xdd, 0x16, 0x5b, 0xf8, 0x27, 0x25, 0x01, 0x01, 0xe9, 0x10, 0x81, 0x9a, 
  0x9b, 0x1d, 0x3e, 0x09, 0xee, 0x08, 0x09, 0xfc, 0x12, 0x2e, 0xed, 0x13, 
  0x27, 0x01, 0xdf, 0xfb, 0xfe, 0x1b, 0x18, 0xe0, 0x24, 0xe5, 0x02, 0xd8, 
  0x11, 0xf8, 0xd0, 0x20, 0x0a, 0xfb, 0xb8, 0xc3, 0xed, 0x1a, 0x0f, 0x2b, 
  0x21, 0x0f, 0xed, 0xdd, 0xcc, 0xeb, 0xd4, 0xfc, 0xee, 0x28, 0x0d, 0xe7, 
  0xff, 0x06, 0xef, 0xfd, 0xd1, 0xf5, 0xe3, 0xdf, 0x0f, 0x1d, 0x27, 0xff, 
  0xfd, 0xe3, 0x0d, 0xc6, 0x09, 0x25, 0x35, 0xf0, 0x16, 0x76, 0xba, 0x38, 
  0x52, 0x4c, 0x7f, 0x4f, 0x1b, 0xda, 0x4c, 0xfd, 0x11, 0x66, 0x4d, 0xed, 
  0x00, 0x32, 0xe8, 0x25, 0x0f, 0x38, 0x26, 0x06, 0x1d, 0xf7, 0x17, 0xcd, 
  0x3d, 0x27, 0x38, 0xe3, 0xf1, 0x15, 0xf3, 0x1c, 0xe0, 0x13, 0x06, 0x04, 
  0xff, 0x1d, 0xef, 0x1e, 0xff, 0xe3, 0x21, 0xfd, 0x12, 0x1c, 0xf1, 0xee, 
  0xe5, 0x24, 0x07, 0x14, 0x06, 0x19, 0xf8, 0xe1, 0xd1, 0x2f, 0x3e, 0x2d, 
  0x04, 0xf6, 0xcc, 0xd5, 0x0c, 0x00, 0x14, 0xf5, 0x08, 0xf2, 0xf6, 0xcb, 
  0xd1, 0x2c, 0x09, 0xe1, 0x02, 0xdb, 0xe6, 0x0c, 0x3d, 0x11, 0xff, 0xd6, 
  0xe5, 0xde, 0x31, 0x04, 0xef, 0x11, 0xf5, 0x18, 0x1f, 0xfd, 0xd3, 0x06, 
  0x58, 0xf0, 0x13, 0x1c, 0x16, 0x01, 0x30, 0xd8, 0xe0, 0x26, 0xd3, 0x1c, 
  0x2f, 0x1f, 0xd2, 0xe7, 0x0c, 0xf0, 0x14, 0x20, 0xfd, 0x13, 0x13, 0xff, 
  0xea, 0x39, 0x1f, 0x0b, 0x30, 0x20, 0x9f, 0xde, 0x17, 0xbc, 0x0b, 0x04, 
  0xe3, 0x31, 0x34, 0xe7, 0x07, 0x07, 0xf8, 0x24, 0x1f, 0x5f, 0x81, 0xef, 
  0x20, 0xa6, 0x56, 0x11, 0xb2, 0x1e, 0x48, 0x1a, 0xfd, 0x28, 0xd4, 0x0f, 
  0xef, 0x2a, 0x94, 0xf9, 0x2b, 0x8b, 0x49, 0xe8, 0xdc, 0xef, 0x3e, 0x2d, 
  0x68, 0x36, 0x1c, 0xdc, 0x1b, 0x26, 0xcb, 0x09, 0xdb, 0xdd, 0xee, 0xe5, 
  0xf4, 0x48, 0xfe, 0x2e, 0xe8, 0x19, 0xe1, 0x20, 0x26, 0xe6, 0xca, 0xd9, 
  0xf0, 0xa8, 0xfc, 0xf0, 0xdd, 0x1d, 0xce, 0x17, 0x1a, 0xf2, 0xc6, 0x18, 
  0x1d, 0x29, 0xcd, 0xcf, 0x0c, 0x89, 0x38, 0xec, 0xad, 0x1d, 0xf8, 0x00, 
  0x3b, 0x26, 0xbb, 0x2e, 0x32, 0x39, 0x0a, 0xc6, 0xf1, 0x94, 0xd0, 0xd8, 
  0xea, 0x0d, 0x05, 0x13, 0xe0, 0x35, 0xd3, 0x00, 0x29, 0xdb, 0x05, 0x07, 
  0x16, 0x5a, 0x10, 0x34, 0x45, 0x29, 0x3a, 0xcd, 0xf7, 0x4d, 0x49, 0xf5, 
  0x01, 0xe7, 0x38, 0xf9, 0x24, 0xcb, 0xb7, 0x02, 0x0e, 0x50, 0xf8, 0x60, 
  0x04, 0xab, 0xd5, 0xe3, 0x0e, 0x16, 0x25, 0xe9, 0x0b, 0x11, 0xd9, 0x08, 
  0xc5, 0x5f, 0xe8, 0xbd, 0xc5, 0x04, 0xf5, 0x0d, 0x52, 0x6a, 0xf9, 0x0f, 
  0x19, 0xfb, 0x5f, 0x1a, 0x46, 0x5e, 0x03, 0x4d, 0x40, 0x18, 0x3a, 0x34, 
  0x26, 0xdf, 0x8b, 0x2a, 0xf8, 0xdc, 0xdf, 0x14, 0xe4, 0x70, 0xbb, 0x76, 
  0x0c, 0xea, 0xe1, 0x42, 0xec, 0xd7, 0x32, 0x24, 0x66, 0xf0, 0xe7, 0x8d, 
  0x81, 0x3a, 0xc6, 0xed, 0x06, 0x2e, 0xd0, 0xd5, 0x74, 0x52, 0x8c, 0x01, 
  0xdb, 0x1a, 0x55, 0x00, 0x05, 0x5f, 0x5e, 0x56, 0x66, 0x25, 0xe4, 0xf7, 
  0x13, 0x2a, 0x90, 0xaf, 0x1e, 0xa8, 0x30, 0x1d, 0xde, 0x2d, 0xf5, 0x12, 
  0xc5, 0x1f, 0x17, 0xd2, 0xce, 0x11, 0xff, 0x1f, 0x0d, 0x3a, 0x10, 0xf0, 
  0x01, 0xef, 0xfd, 0x16, 0xdc, 0xe0, 0xff, 0xd7, 0xfd, 0xfe, 0xf5, 0x00, 
  0x56, 0x14, 0x04, 0x06, 0x0f, 0xff, 0x13, 0xde, 0xea, 0x34, 0x0a, 0x2e, 
  0x04, 0x20, 0x1f, 0x16, 0x50, 0xf1, 0x32, 0x1b, 0x1a, 0x0a, 0x0e, 0x14, 
  0x0a, 0x0a, 0x1d, 0x13, 0xd6, 0xd7, 0xd2, 0xb8, 0xaa, 0x81, 0xe4, 0xd2, 
  0x91, 0xa2, 0xe0, 0xf7, 0xfe, 0xea, 0xa1, 0xe6, 0xe8, 0x3f, 0xc8, 0xd6, 
  0x4b, 0xc3, 0x2b, 0xf0, 0xc0, 0x0a, 0x34, 0xb7, 0x01, 0x37, 0x15, 0xdd, 
  0x13, 0x2f, 0xd8, 0xf7, 0xff, 0xd5, 0x2c, 0x17, 0x08, 0xf6, 0x0f, 0x0f, 
  0x4e, 0x16, 0x0d, 0x02, 0xc2, 0xd3, 0x03, 0xa9, 0xec, 0xb1, 0xd7, 0xd1, 
  0xe5, 0xc5, 0x01, 0xf5, 0x3f, 0xdc, 0xe0, 0xf7, 0xec, 0x3c, 0x22, 0xd6, 
  0x1d, 0x04, 0x33, 0x08, 0x0a, 0x30, 0x1c, 0xd3, 0x21, 0xff, 0x0c, 0xfe, 
  0x13, 0x09, 0x13, 0x02, 0x05, 0xe0, 0x0b, 0x16, 0x1e, 0x18, 0x01, 0x2d, 
  0x46, 0x22, 0xf8, 0x12, 0xf2, 0xd5, 0x15, 0x0f, 0x09, 0x21, 0x03, 0x0c, 
  0x01, 0xeb, 0xf7, 0xf3, 0xde, 0xed, 0xfa, 0xe3, 0x0d, 0xed, 0x1d, 0x0d, 
  0x0c, 0xe4, 0xe8, 0x05, 0xfe, 0x17, 0xe5, 0x7f, 0xdf, 0xfc, 0xdc, 0x3c, 
  0x03, 0x12, 0x14, 0xed, 0x2d, 0x13, 0x12, 0xfb, 0xf7, 0xf0, 0x10, 0xe6, 
  0x53, 0x17, 0x0a, 0xf9, 0xd4, 0xc0, 0x18, 0xef, 0x02, 0x08, 0xb4, 0xd8, 
  0xfc, 0xfa, 0xaf, 0x39, 0xd4, 0xa7, 0xd4, 0x12, 0xd1, 0xe1, 0x2a, 0x0c, 
  0xfd, 0x01, 0xc9, 0xd8, 0x0b, 0x02, 0xc5, 0xf5, 0xe0, 0xd8, 0xf3, 0x1a, 
  0xf6, 0x10, 0x4a, 0xea, 0x10, 0x24, 0xf5, 0xfa, 0x01, 0x1b, 0x19, 0xec, 
  0x19, 0x1b, 0x22, 0x16, 0x13, 0x08, 0x1f, 0x0e, 0xf5, 0x13, 0xda, 0x16, 
  0x2b, 0x1b, 0x17, 0xec, 0xfd, 0x0c, 0x26, 0x27, 0x0f, 0xf6, 0x19, 0x01, 
  0xec, 0xee, 0xeb, 0x14, 0xed, 0x02, 0x11, 0xe1, 0xeb, 0xfa, 0x02, 0x0e, 
  0x0f, 0x13, 0x11, 0x09, 0xe6, 0x0f, 0x12, 0xf1, 0x16, 0x15, 0x22, 0x26, 
  0x0e, 0xe8, 0x0e, 0x07, 0x0c, 0xae, 0xd6, 0x32, 0xc9, 0x3e, 0xf8, 0xff, 
  0x0e, 0xdf, 0x0b, 0x1a, 0xf1, 0xdb, 0xd7, 0xf3, 0xbb, 0xe5, 0x10, 0x12, 
  0xe3, 0x04, 0xc2, 0xd6, 0xe3, 0xe0, 0xc2, 0x08, 0xc4, 0xf7, 0xc9, 0xc6, 
  0x00, 0xf5, 0x16, 0xd8, 0xf3, 0xe9, 0x00, 0xed, 0x05, 0xc8, 0x0f, 0x0f, 
  0x21, 0xea, 0xcf, 0xe6, 0x40, 0x3a, 0x81, 0x00, 0x4f, 0xe7, 0x34, 0x0e, 
  0x0e, 0x10, 0x46, 0xe7, 0x36, 0x2c, 0x0b, 0x04, 0x13, 0x3a, 0xcf, 0x06, 
  0x03, 0xe7, 0x38, 0x21, 0x0f, 0x3c, 0x13, 0xe0, 0xf6, 0x28, 0x1a, 0xfa, 
  0x2a, 0x07, 0x54, 0x0a, 0xf8, 0x03, 0xe1, 0x21, 0x3d, 0x3d, 0x19, 0xef, 
  0x06, 0x03, 0x19, 0x3c, 0x0c, 0xf6, 0x8e, 0x11, 0xc3, 0xd9, 0x32, 0x1f, 
  0x17, 0x00, 0x09, 0x0d, 0xeb, 0x11, 0x25, 0x1a, 0xec, 0x31, 0x91, 0xf8, 
  0x39, 0xf1, 0x0b, 0xee, 0xcb, 0xf6, 0x1d, 0xf9, 0x1b, 0x26, 0x04, 0xcd, 
  0x0f, 0x0a, 0xea, 0x20, 0x0d, 0x13, 0x22, 0xf8, 0x1c, 0x09, 0x01, 0x30, 
  0xcd, 0xd5, 0x23, 0x18, 0x11, 0x1d, 0xf9, 0xf4, 0xfe, 0xb2, 0x26, 0x16, 
  0x09, 0x00, 0x29, 0xe9, 0x1e, 0xf5, 0xfd, 0xf5, 0xe4, 0x18, 0x02, 0xd8, 
  0xfc, 0xac, 0x1f, 0x20, 0xe1, 0x04, 0x07, 0x9d, 0x17, 0x24, 0x09, 0xfb, 
  0xea, 0xf6, 0xf3, 0xf0, 0xdc, 0xf0, 0x14, 0x08, 0xe0, 0xee, 0xf9, 0x10, 
  0x0f, 0xf0, 0x0c, 0x19, 0x60, 0x1a, 0xe3, 0x11, 0xde, 0x17, 0x3f, 0x15, 
  0x11, 0x58, 0x59, 0x31, 0xf4, 0x44, 0x45, 0x22, 0x11, 0x2d, 0xd2, 0x1a, 
  0x3e, 0x00, 0x1f, 0xf5, 0x04, 0x3e, 0xf6, 0x55, 0xcb, 0x0b, 0xfa, 0x26, 
  0x22, 0xcb, 0x07, 0x3c, 0xfa, 0x26, 0xd9, 0x0a, 0x00, 0x21, 0xf3, 0x58, 
  0xe5, 0xef, 0xf2, 0x41, 0xd3, 0xd1, 0x0c, 0x2e, 0xcc, 0x0b, 0xe6, 0xb1, 
  0xe8, 0xc2, 0xd4, 0x7f, 0xcc, 0xe6, 0xe4, 0xc1, 0xe8, 0xea, 0xf7, 0xda, 
  0xcb, 0xda, 0xa9, 0x08, 0x9c, 0x1b, 0x9a, 0xfb, 0xa3, 0xcc, 0x00, 0xf2, 
  0xf5, 0xc0, 0x03, 0x23, 0xf5, 0xe1, 0xb7, 0xd6, 0xf6, 0x46, 0xe4, 0x15, 
  0xc7, 0xbc, 0xb5, 0x02, 0x0a, 0xd3, 0x37, 0x54, 0x0b, 0x3b, 0xfc, 0x1a, 
  0x32, 0xf7, 0x1b, 0x1b, 0x3b, 0xfc, 0x2a, 0xe5, 0xfe, 0xfe, 0x13, 0x1a, 
  0x15, 0x4f, 0xe6, 0x35, 0x25, 0x16, 0x38, 0x2f, 0x40, 0xf5, 0x28, 0x14, 
  0xc9, 0xda, 0x19, 0x2d, 0xf0, 0x20, 0xdf, 0x3d, 0x1f, 0xc4, 0xe9, 0xd0, 
  0xfa, 0x2f, 0x0c, 0xe0, 0xff, 0x10, 0x25, 0x32, 0x31, 0xf2, 0x12, 0xdf, 
  0xd2, 0x12, 0xac, 0x39, 0xdc, 0x09, 0x12, 0xe3, 0x23, 0x26, 0xf9, 0x31, 
  0x3a, 0x0c, 0xfb, 0x04, 0x1a, 0x66, 0xf4, 0x39, 0xc5, 0x19, 0x18, 0x39, 
  0xba, 0x81, 0xf9, 0xec, 0x06, 0x44, 0xd3, 0xda, 0x0e, 0xa3, 0xc2, 0x0b, 
  0xec, 0xe6, 0xe9, 0xd8, 0xf9, 0xee, 0x4c, 0x2d, 0xe8, 0x0a, 0x2b, 0x08, 
  0x1c, 0x0e, 0xc7, 0x0d, 0xf4, 0xe9, 0x00, 0xf3, 0x1c, 0xf9, 0x4d, 0x66, 
  0xea, 0x26, 0xf5, 0x17, 0xfe, 0x24, 0xda, 0x3d, 0xdd, 0xd9, 0x3b, 0x43, 
  0x15, 0x98, 0xdb, 0xea, 0xc5, 0x37, 0xf3, 0xcc, 0xeb, 0xdb, 0x03, 0x11, 
  0x01, 0xd2, 0xd5, 0xf7, 0x4d, 0x50, 0xe0, 0x00, 0xf7, 0xe7, 0x4e, 0x0a, 
  0x18, 0x30, 0x22, 0x3d, 0xfa, 0x31, 0x32, 0x25, 0x1d, 0x0c, 0x11, 0x3b, 
  0x19, 0x31, 0x0a, 0x09, 0x0d, 0x2d, 0xcd, 0x49, 0xf8, 0xe5, 0xed, 0x1f, 
  0x45, 0xf2, 0xf7, 0x33, 0x29, 0x0a, 0xe0, 0x17, 0xfd, 0x2d, 0xd6, 0x2d, 
  0xed, 0xec, 0xe3, 0x2b, 0xf8, 0xe9, 0x0e, 0xca, 0x26, 0x0c, 0xc8, 0xfc, 
  0xd9, 0xe5, 0xaa, 0xec, 0x03, 0xc5, 0xc3, 0xb2, 0xd1, 0xd7, 0xf1, 0xe8, 
  0x0a, 0xc4, 0xa3, 0xa7, 0xa2, 0xd5, 0x81, 0x30, 0xb0, 0xae, 0xa2, 0xa1, 
  0x0e, 0xeb, 0x10, 0x09, 0x2e, 0xd7, 0xf0, 0xed, 0xc6, 0x2a, 0xfd, 0x06, 
  0xf7, 0xf5, 0xe4, 0xf6, 0xd6, 0x14, 0x2a, 0xe7, 0xf6, 0x13, 0x0d, 0x02, 
  0xeb, 0xd5, 0x14, 0xc4, 0x24, 0x15, 0x27, 0x1b, 0x0a, 0x32, 0x09, 0x0f, 
  0x19, 0xbb, 0x24, 0xf9, 0x09, 0x05, 0x1e, 0xc2, 0x46, 0x21, 0x11, 0xf0, 
  0x35, 0x29, 0x16, 0x0b, 0xef, 0xff, 0x21, 0x13, 0x25, 0x33, 0x12, 0x57, 
  0x2e, 0xf2, 0x0c, 0x18, 0x21, 0x04, 0xbe, 0x07, 0xc7, 0xeb, 0x01, 0xf7, 
  0xe5, 0xef, 0x24, 0x3a, 0x37, 0xeb, 0xee, 0xdf, 0x15, 0x14, 0xfe, 0x13, 
  0x3a, 0xdd, 0x04, 0xc5, 0xd0, 0x01, 0x03, 0x1b, 0x15, 0x20, 0xd8, 0xb9, 
  0x3e, 0x1d, 0xed, 0x2d, 0x2b, 0x03, 0x2c, 0x0d, 0xf7, 0x46, 0x18, 0x15, 
  0xfd, 0x12, 0xfd, 0x20, 0x08, 0xc6, 0xad, 0xdb, 0x81, 0xb1, 0x10, 0x30, 
  0x2b, 0xcf, 0x1c, 0x25, 0x44, 0xec, 0xde, 0xf2, 0xac, 0x18, 0x2f, 0xb2, 
  0x16, 0xa1, 0x1b, 0xe7, 0xa5, 0xc9, 0xe5, 0x85, 0xfb, 0x21, 0xdc, 0x92, 
  0x09, 0x2b, 0xf1, 0xf6, 0x09, 0xda, 0x45, 0x26, 0x0e, 0x0e, 0x24, 0xee, 
  0x42, 0x27, 0xfe, 0x13, 0xf5, 0xf3, 0x93, 0xdd, 0xb3, 0xdc, 0xdf, 0xec, 
  0xf0, 0xbc, 0x2b, 0x34, 0x33, 0xf4, 0xd5, 0x04, 0xb2, 0xee, 0x3f, 0xd5, 
  0x0e, 0xc7, 0x0f, 0xc7, 0xc0, 0xdb, 0xd9, 0x97, 0xfe, 0x1a, 0x03, 0xaa, 
  0x0c, 0x19, 0xf0, 0x0a, 0x08, 0x08, 0x1a, 0x1a, 0x27, 0x19, 0x1b, 0xee, 
  0x62, 0x1c, 0x0e, 0x18, 0xd9, 0xc9, 0x2a, 0xea, 0xf7, 0x33, 0x01, 0x16, 
  0x16, 0xc4, 0x09, 0x00, 0x19, 0xf1, 0xd1, 0x3d, 0x1b, 0x5a, 0x08, 0x21, 
  0xfb, 0x1f, 0x3a, 0x41, 0x14, 0x1a, 0x1e, 0x00, 0xe9, 0x08, 0x4b, 0x20, 
  0x06, 0xd9, 0xe1, 0x14, 0xf9, 0x14, 0x36, 0xfd, 0xd4, 0xe9, 0xff, 0x09, 
  0x1e, 0x0d, 0x28, 0xc7, 0xe2, 0xa8, 0x14, 0x37, 0xd4, 0x3e, 0xdb, 0xe0, 
  0x53, 0xc7, 0xd7, 0xd6, 0x1f, 0xb4, 0x0c, 0x17, 0x08, 0xc1, 0x43, 0x50, 
  0x0c, 0x7f, 0xc3, 0xeb, 0x3c, 0xe2, 0xe3, 0xc5, 0xd2, 0xd2, 0x1d, 0xf7, 
  0xe6, 0x10, 0x12, 0x1d, 0x39, 0x1a, 0x1c, 0x34, 0xec, 0xed, 0x25, 0x09, 
  0xe3, 0x2c, 0x2e, 0xc7, 0xd2, 0xd3, 0xf2, 0x29, 0xdb, 0xf7, 0xe0, 0xfc, 
  0xf8, 0xdd, 0x06, 0xf1, 0x17, 0x03, 0xdc, 0xd7, 0x17, 0xfc, 0x22, 0x2e, 
  0x16, 0x1b, 0x12, 0x02, 0xf2, 0x2c, 0xfd, 0x07, 0x29, 0x05, 0xfd, 0xf1, 
  0x06, 0xf7, 0xe4, 0xe2, 0xf9, 0xe4, 0x05, 0xfc, 0xe7, 0x21, 0xd3, 0x1b, 
  0xd7, 0x16, 0xf2, 0x4b, 0xfa, 0x28, 0x08, 0x02, 0x3b, 0xf4, 0x0e, 0x11, 
  0x10, 0xf9, 0x17, 0xe0, 0x36, 0x22, 0x34, 0x02, 0x25, 0x24, 0xe5, 0xd9, 
  0x38, 0x81, 0x1f, 0x10, 0xd4, 0x0a, 0x5f, 0xfb, 0x4f, 0x27, 0xe1, 0x2d, 
  0x1d, 0x3f, 0xe9, 0xf8, 0x14, 0x8d, 0x2c, 0x1c, 0xce, 0x22, 0x2e, 0x2a, 
  0x23, 0x1f, 0xe6, 0x13, 0xfe, 0x05, 0x37, 0xfb, 0xe7, 0xd4, 0xf3, 0xf2, 
  0xdd, 0xeb, 0x33, 0x35, 0x04, 0xe9, 0xdd, 0xfc, 0x13, 0x1a, 0x2f, 0xe9, 
  0xfe, 0xaa, 0xee, 0xe6, 0xd6, 0x17, 0x09, 0x4e, 0x36, 0xd1, 0xdb, 0x14, 
  0xc9, 0xe5, 0x2f, 0xcf, 0xdf, 0xd1, 0xdf, 0xfa, 0xce, 0xd9, 0xf5, 0x0a, 
  0x3a, 0xd0, 0xe0, 0xeb, 0xc9, 0x15, 0x1c, 0x04, 0xfe, 0xd4, 0xd0, 0x01, 
  0xee, 0xec, 0xdc, 0x1a, 0xe6, 0xfb, 0xf9, 0xf8, 0xf9, 0xf4, 0x51, 0x0b, 
  0xee, 0x04, 0xea, 0x0f, 0x2f, 0xf1, 0xc6, 0x10, 0xf4, 0xe1, 0xda, 0x22, 
  0xf1, 0xe8, 0x75, 0x21, 0xfb, 0x26, 0xdb, 0xfb, 0x20, 0x0e, 0xcc, 0xe3, 
  0x22, 0x05, 0x2b, 0x4d, 0x2e, 0x11, 0x1a, 0x0d, 0xd9, 0xd2, 0x14, 0x25, 
  0x15, 0x03, 0x15, 0x0b, 0x2c, 0x0e, 0x05, 0x38, 0xaf, 0xf3, 0x16, 0xc0, 
  0xd0, 0xc6, 0xba, 0xe2, 0xf3, 0xde, 0xc1, 0xd6, 0xf0, 0xf0, 0xe3, 0xf1, 
  0x12, 0x0d, 0x43, 0xfc, 0x20, 0xf9, 0x06, 0x30, 0x38, 0xf7, 0x04, 0x17, 
  0x39, 0x25, 0x23, 0x0c, 0x4a, 0x1f, 0x0e, 0x21, 0xc6, 0xf7, 0x3d, 0x39, 
  0x30, 0x14, 0x42, 0x26, 0x47, 0x19, 0x2f, 0x31, 0x81, 0x94, 0x1d, 0xe4, 
  0xc8, 0xcc, 0xd0, 0xe4, 0xde, 0x86, 0xcd, 0xe1, 0x1c, 0xa7, 0xa4, 0x91, 
  0x12, 0x02, 0x61, 0x22, 0x34, 0x3a, 0x16, 0x34, 0x15, 0xf9, 0x03, 0x9d, 
  0x05, 0x44, 0x51, 0x06, 0xfd, 0xf0, 0xc5, 0xdf, 0xec, 0xcf, 0x0a, 0xe4, 
  0x10, 0xe0, 0x14, 0x27, 0x42, 0xfb, 0xc1, 0xf9, 0xd7, 0xfb, 0x1d, 0xec, 
  0x3f, 0xbb, 0x11, 0xff, 0xd3, 0x27, 0xba, 0xa6, 0x12, 0x22, 0xf0, 0xe7, 
  0x3d, 0x24, 0x0b, 0x21, 0x20, 0x3b, 0x13, 0x49, 0x36, 0x32, 0x30, 0x24, 
  0x3a, 0x0d, 0x0c, 0x43, 0x10, 0x45, 0x27, 0xf5, 0x43, 0xbf, 0x13, 0xff, 
  0xd2, 0x41, 0xf0, 0xd2, 0xf8, 0x31, 0x31, 0xfb, 0x52, 0x45, 0x06, 0x17, 
  0x0c, 0x5a, 0x08, 0x25, 0xfb, 0x54, 0x09, 0xf7, 0x11, 0xe6, 0x37, 0x3a, 
  0xd8, 0xa5, 0x1a, 0x08, 0x97, 0x16, 0xa5, 0x4e, 0x07, 0xfa, 0xbb, 0xed, 
  0x39, 0xf1, 0xf2, 0x36, 0xe9, 0xed, 0x28, 0xdb, 0x24, 0xc3, 0xef, 0xfb, 
  0xeb, 0x0c, 0x1b, 0xef, 0x5f, 0x22, 0xd7, 0xe3, 0xd6, 0xbc, 0x52, 0x46, 
  0xee, 0x7b, 0x0c, 0xe5, 0x19, 0xd2, 0xc4, 0x65, 0xf3, 0x03, 0xe8, 0xb7, 
  0xe3, 0xe0, 0xda, 0x51, 0xd9, 0x5b, 0xac, 0xd1, 0x03, 0xfa, 0xae, 0x68, 
  0x06, 0x84, 0xa9, 0x26, 0x3e, 0xdd, 0xdd, 0x0f, 0x40, 0xb7, 0x2e, 0xd5, 
  0xc6, 0x0b, 0x44, 0xcd, 0x61, 0x53, 0xf4, 0x1d, 0x2b, 0x1b, 0x03, 0x0d, 
  0x33, 0xbb, 0x2a, 0xc8, 0xaf, 0x31, 0x5b, 0x21, 0x7f, 0xf6, 0xd7, 0xb9, 
  0x09, 0x00, 0x0c, 0x0d, 0x42, 0xf1, 0x0b, 0xdd, 0xe1, 0x0f, 0x34, 0xe8, 
  0x32, 0x10, 0xe8, 0xbe, 0xe4, 0xfb, 0x08, 0x0d, 0xd7, 0x0b, 0xf2, 0x08, 
  0x14, 0xf6, 0x02, 0xa1, 0x34, 0x1c, 0x0c, 0xda, 0xce, 0xe4, 0x39, 0xfd, 
  0xbc, 0x22, 0xec, 0x02, 0x26, 0xc0, 0x11, 0x87, 0x21, 0xdf, 0x2a, 0xcd, 
  0xb8, 0x08, 0x04, 0xa6, 0x06, 0xe7, 0xfe, 0x1a, 0x1c, 0xa9, 0xfb, 0x95, 
  0x36, 0x1a, 0x27, 0x0c, 0xbc, 0xef, 0x60, 0x0b, 0xfc, 0x7f, 0x3b, 0x00, 
  0x19, 0xd6, 0x37, 0xc9, 0x17, 0xf5, 0x36, 0xca, 0xea, 0xd9, 0x5a, 0x4e, 
  0x04, 0x6f, 0x04, 0xf5, 0x3a, 0x03, 0x2b, 0xfd, 0x00, 0xe5, 0x32, 0x0b, 
  0xe2, 0xe1, 0x44, 0x20, 0xfa, 0x5c, 0xef, 0xf9, 0x43, 0x07, 0xe7, 0xf1, 
  0x05, 0xe6, 0xf1, 0x2d, 0xfa, 0xd2, 0xec, 0x15, 0x14, 0x09, 0x30, 0x3b, 
  0x17, 0xcf, 0x48, 0xc1, 0x35, 0x20, 0x12, 0x26, 0xbc, 0xd4, 0x1b, 0x13, 
  0x09, 0x57, 0x1d, 0xe5, 0xf2, 0xfe, 0x24, 0x0e, 0x21, 0xe6, 0x26, 0x0d, 
  0x02, 0xb6, 0x36, 0x40, 0xed, 0x53, 0xce, 0x06, 0x12, 0xe1, 0xd1, 0x04, 
  0xec, 0xcf, 0xf3, 0x27, 0xf8, 0x0d, 0xe6, 0x57, 0x6b, 0x30, 0x5d, 0x1d, 
  0x07, 0xfc, 0x00, 0xfd, 0xb7, 0x12, 0x2b, 0x04, 0xf8, 0xe4, 0xb1, 0x3e, 
  0x23, 0x57, 0x32, 0x09, 0x5a, 0x2c, 0x34, 0xd8, 0xbd, 0x23, 0x02, 0xfd, 
  0x35, 0xdc, 0xab, 0x32, 0x46, 0x50, 0x2b, 0xda, 0x19, 0xf9, 0xe6, 0xef, 
  0xe5, 0x2b, 0xd6, 0x1a, 0x24, 0x2f, 0xc7, 0x0d, 0x15, 0xc8, 0x1c, 0xcf, 
  0x28, 0x37, 0x00, 0xff, 0xe0, 0x2c, 0x28, 0xd9, 0x13, 0xec, 0x03, 0x37, 
  0xdc, 0x53, 0xd3, 0x33, 0x34, 0x12, 0xb9, 0xdc, 0xc9, 0xeb, 0x34, 0x37, 
  0x3c, 0xf9, 0xcb, 0x2b, 0xe3, 0x3b, 0xd5, 0xfd, 0xf6, 0x35, 0xd0, 0x31, 
  0xcc, 0x1f, 0x06, 0x1b, 0x36, 0xf3, 0xc4, 0x2e, 0xf3, 0xc5, 0x03, 0xd5, 
  0x2a, 0x37, 0xa7, 0xfd, 0x81, 0x27, 0x4b, 0x34, 0x0c, 0xc7, 0xe5, 0x41, 
  0xec, 0x33, 0x09, 0x0e, 0xf4, 0x20, 0xab, 0x3b, 0xab, 0x1d, 0x21, 0x22, 
  0x43, 0x02, 0xba, 0xe3, 0x43, 0x05, 0x38, 0x05, 0xfb, 0x42, 0x17, 0xfd, 
  0xd6, 0xff, 0x24, 0x28, 0x31, 0x02, 0x97, 0x09, 0x27, 0x38, 0x12, 0xdb, 
  0xf9, 0x36, 0x07, 0x5b, 0xdd, 0x04, 0xc7, 0xd1, 0x6c, 0x3e, 0xb5, 0x2e, 
  0x27, 0x1b, 0xf2, 0x05, 0xff, 0x5d, 0xcd, 0x7f, 0xaf, 0xd2, 0xb8, 0xe3, 
  0x28, 0x33, 0x0a, 0x59, 0xed, 0x0e, 0xd3, 0x01, 0x29, 0xfe, 0xcc, 0x2b, 
  0xa8, 0x14, 0x38, 0xff, 0x01, 0x08, 0x16, 0xfa, 0xf8, 0x18, 0x10, 0x29, 
  0x25, 0x33, 0x02, 0x53, 0xf5, 0xec, 0xfa, 0xf5, 0x38, 0x17, 0xd2, 0x29, 
  0x1c, 0x07, 0x13, 0xf2, 0x26, 0x42, 0xfb, 0x52, 0xc6, 0x25, 0xfc, 0x46, 
  0x1b, 0x07, 0xe0, 0xdb, 0xee, 0xf0, 0xe1, 0xfc, 0xf7, 0x38, 0xfd, 0xe8, 
  0xf5, 0x05, 0xe1, 0x25, 0xea, 0xfd, 0x19, 0x43, 0xc9, 0x1e, 0xea, 0x47, 
  0x1e, 0x19, 0xce, 0x35, 0xe7, 0x0e, 0x23, 0xe6, 0xd9, 0xbf, 0xca, 0xfb, 
  0xbe, 0x35, 0xde, 0x2a, 0x36, 0xd3, 0xe7, 0x3e, 0x23, 0x17, 0xd7, 0x13, 
  0x1d, 0x46, 0xd9, 0x39, 0x4a, 0x28, 0x00, 0x26, 0x38, 0x38, 0xe4, 0xec, 
  0xec, 0x42, 0x24, 0x42, 0xd0, 0xe9, 0x10, 0xec, 0x25, 0xac, 0xe6, 0xf7, 
  0xb0, 0x38, 0xd9, 0xa9, 0x27, 0x3c, 0xec, 0xed, 0x31, 0x13, 0x31, 0x06, 
  0x39, 0xa3, 0xe4, 0x0e, 0x10, 0x22, 0x21, 0xd3, 0x06, 0x03, 0xe3, 0x29, 
  0xf0, 0x0a, 0x89, 0xf6, 0x07, 0x81, 0x04, 0xc9, 0xe1, 0xe7, 0xe1, 0x21, 
  0xd4, 0xea, 0xe7, 0xab, 0x29, 0x5a, 0x0c, 0xd6, 0xd8, 0x9f, 0x4a, 0x1e, 
  0xc9, 0x0c, 0xe1, 0x03, 0xed, 0x1d, 0x0f, 0x0b, 0x71, 0x57, 0x0e, 0xf1, 
  0x25, 0xb9, 0x50, 0x0a, 0xe7, 0x57, 0x38, 0x30, 0x3f, 0x30, 0xe0, 0x09, 
  0x44, 0x38, 0xfc, 0xf9, 0xe2, 0xb0, 0xf3, 0x3b, 0x20, 0x25, 0x0c, 0x15, 
  0xf5, 0x53, 0x28, 0x05, 0x02, 0x30, 0xe9, 0x2c, 0xbe, 0xe6, 0xdb, 0x27, 
  0x3b, 0xe2, 0xe7, 0xef, 0x45, 0xdc, 0xfb, 0xd5, 0xf4, 0xea, 0xf4, 0x23, 
  0xb0, 0x04, 0xd8, 0xbd, 0x05, 0x3b, 0xd9, 0x0b, 0x25, 0xed, 0xb8, 0xa5, 
  0x2c, 0x36, 0xaa, 0xf5, 0x8a, 0xd8, 0xed, 0x1e, 0x35, 0x20, 0xc7, 0x1b, 
  0xcc, 0x04, 0x08, 0xfe, 0xea, 0x08, 0x02, 0x3d, 0x08, 0xf5, 0x16, 0x23, 
  0xf4, 0xc6, 0x2d, 0xfb, 0x20, 0xf7, 0xdb, 0x0e, 0xf6, 0x15, 0x13, 0xed, 
  0xf9, 0xe4, 0x05, 0x2e, 0x03, 0x1e, 0x70, 0xf6, 0x01, 0x1c, 0x32, 0x13, 
  0x04, 0xca, 0x2a, 0xe4, 0xd4, 0xda, 0x0a, 0xe3, 0xf9, 0xed, 0x1e, 0xe2, 
  0x09, 0x24, 0x1a, 0xf2, 0x16, 0xdd, 0x34, 0x1c, 0xb1, 0x15, 0xe3, 0xec, 
  0x0f, 0x03, 0xda, 0x69, 0x1c, 0xe5, 0x03, 0x08, 0x0d, 0xe5, 0x06, 0x63, 
  0x67, 0x47, 0x09, 0xee, 0xe5, 0x4b, 0xf3, 0x78, 0xd4, 0xe8, 0xc7, 0x3b, 
  0x0e, 0xd5, 0xcf, 0xf4, 0x08, 0x24, 0xb1, 0xc6, 0x15, 0x37, 0xe1, 0x2b, 
  0x54, 0xb4, 0xa3, 0xf7, 0xeb, 0xbe, 0x2f, 0xdb, 0x90, 0xee, 0xbb, 0xb5, 
  0xdb, 0xd5, 0x81, 0x37, 0xd5, 0xbf, 0xc2, 0xeb, 0x22, 0x3e, 0x34, 0x08, 
  0xb3, 0x16, 0x16, 0xf3, 0xe9, 0x01, 0xd6, 0x42, 0xd9, 0xc9, 0xf3, 0xfa, 
  0x29, 0x19, 0xea, 0xe9, 0x0a, 0xfb, 0x1b, 0x13, 0xf1, 0xf2, 0x26, 0xf8, 
  0x63, 0xee, 0x03, 0x18, 0x02, 0x28, 0xee, 0xef, 0x13, 0x25, 0x39, 0x20, 
  0x0e, 0xf2, 0x1d, 0xda, 0x0c, 0x44, 0x1f, 0xf2, 0x3c, 0x26, 0xf4, 0x2a, 
  0x2e, 0x11, 0x3b, 0x3b, 0x18, 0x1b, 0x52, 0x17, 0x3f, 0x20, 0x31, 0x24, 
  0xed, 0xf9, 0x36, 0x03, 0xec, 0xe4, 0xea, 0xd5, 0xd3, 0xc6, 0xd0, 0x1b, 
  0xf7, 0xbc, 0xde, 0xfc, 0x13, 0x1f, 0xd5, 0xd4, 0x3c, 0xe1, 0x3a, 0x0e, 
  0xde, 0xed, 0x3c, 0xdc, 0x0d, 0x48, 0xf0, 0xff, 0x1a, 0x41, 0xb7, 0x1b, 
  0x15, 0xc4, 0x1a, 0x28, 0xdf, 0x0f, 0x5c, 0x10, 0x33, 0x18, 0x07, 0x0b, 
  0xa1, 0xa4, 0x2c, 0xcc, 0xde, 0xb2, 0xd5, 0xb7, 0xdd, 0x81, 0xc7, 0xdd, 
  0xe0, 0xa0, 0xcd, 0xbb, 0x20, 0xff, 0xf5, 0xe2, 0xf0, 0xff, 0xf3, 0x0c, 
  0xfb, 0x1b, 0x2d, 0x28, 0x24, 0x04, 0xf0, 0x33, 0x30, 0x36, 0xfd, 0xe4, 
  0x16, 0xb9, 0x38, 0x2c, 0xf0, 0x03, 0x2c, 0x27, 0x47, 0x22, 0x1a, 0x0f, 
  0xd6, 0xf7, 0x17, 0xd2, 0xe9, 0xd8, 0xf5, 0xd7, 0xd2, 0xe4, 0xef, 0x19, 
  0x10, 0xaa, 0xbc, 0xe6, 0x0e, 0xf3, 0xe8, 0x43, 0xba, 0xf1, 0x18, 0x0f, 
  0x03, 0xf2, 0xf8, 0x7f, 0x16, 0xed, 0xcb, 0xbd, 0x17, 0xe6, 0x39, 0x14, 
  0xd4, 0xf3, 0xda, 0xce, 0xf6, 0xe2, 0xbe, 0x50, 0x05, 0xd0, 0xf4, 0x16, 
  0xbc, 0xdf, 0x3d, 0xe3, 0x0b, 0xde, 0x2c, 0x02, 0xf9, 0xe6, 0x0e, 0x01, 
  0x41, 0xe1, 0xfb, 0xf8, 0x14, 0x53, 0xe1, 0xbe, 0x49, 0x8c, 0x10, 0x0e, 
  0x11, 0xf8, 0x04, 0xdf, 0x0c, 0x1b, 0x18, 0x19, 0x05, 0x57, 0x11, 0xe1, 
  0xef, 0xa5, 0x2e, 0x38, 0x1b, 0xfe, 0x29, 0x9a, 0x00, 0x5f, 0x34, 0x18, 
  0x05, 0xd6, 0x35, 0xe3, 0xbd, 0xb7, 0x01, 0xe0, 0x1a, 0xfa, 0xe4, 0x3c, 
  0x2a, 0xe2, 0xde, 0xd5, 0x03, 0x3d, 0xf3, 0x15, 0xee, 0xe4, 0x18, 0x1b, 
  0x05, 0x00, 0x1e, 0xef, 0x37, 0x11, 0x18, 0x06, 0x33, 0x1a, 0x0b, 0xeb, 
  0x39, 0xbd, 0x3a, 0xea, 0xc7, 0x30, 0xe2, 0x00, 0x13, 0x0e, 0xf7, 0x0d, 
  0x05, 0x04, 0xe1, 0xcd, 0x1a, 0xdd, 0xfb, 0x2b, 0xed, 0xe0, 0x0c, 0x14, 
  0x16, 0x0f, 0x08, 0x07, 0x19, 0xfc, 0xe6, 0xdd, 0x39, 0xef, 0x24, 0x2c, 
  0xed, 0xf1, 0x21, 0x8c, 0x19, 0x1a, 0x3d, 0x03, 0xd7, 0x03, 0x81, 0xf9, 
  0xf8, 0xd8, 0x2d, 0x58, 0x06, 0x16, 0x27, 0xb6, 0x1a, 0x44, 0xe6, 0x30, 
  0x36, 0x0d, 0x25, 0x4f, 0xfb, 0x1e, 0x06, 0x38, 0x14, 0x03, 0xe7, 0xe3, 
  0x1c, 0x20, 0x14, 0x2d, 0x20, 0x28, 0x1f, 0x2a, 0xd5, 0x47, 0x03, 0x10, 
  0x3b, 0xd8, 0x5f, 0x3e, 0x39, 0x27, 0x25, 0x0d, 0x43, 0x27, 0xfb, 0xfa, 
  0x37, 0x0c, 0x25, 0xf5, 0xf2, 0x2f, 0x3a, 0x5a, 0xeb, 0x51, 0xe7, 0xfd, 
  0x02, 0x01, 0xbd, 0x3a, 0x47, 0x04, 0x47, 0xfe, 0x07, 0x19, 0x10, 0xc4, 
  0xe5, 0x4f, 0x14, 0x1a, 0xe8, 0xb8, 0x6f, 0x07, 0xe6, 0x29, 0xca, 0x0d, 
  0x26, 0xfa, 0xa1, 0x23, 0x14, 0xe1, 0x0f, 0xc9, 0xe2, 0xb7, 0x47, 0xb9, 
  0x98, 0x0f, 0x93, 0xf3, 0x0a, 0x0d, 0xa8, 0xfa, 0xcd, 0xa4, 0xfe, 0x2d, 
  0xfd, 0xaa, 0x05, 0x0a, 0xa1, 0x4c, 0x8e, 0xec, 0x0d, 0xe6, 0xac, 0x51, 
  0xad, 0xbe, 0xd5, 0x04, 0x25, 0x19, 0xf9, 0xd4, 0xcd, 0xf3, 0x19, 0x16, 
  0x14, 0x1d, 0x07, 0x51, 0xe3, 0x1e, 0xf5, 0xd7, 0x27, 0x21, 0xed, 0x1f, 
  0x03, 0xb7, 0xfb, 0xf5, 0xe7, 0x0c, 0xba, 0x4c, 0xbe, 0xd7, 0xde, 0xc6, 
  0x1e, 0xf0, 0x0b, 0x1d, 0xd9, 0xf8, 0xfb, 0xf5, 0x27, 0x1e, 0xd6, 0x70, 
  0x29, 0xa2, 0xfe, 0x00, 0xd9, 0xeb, 0x57, 0x48, 0xee, 0x7d, 0xe9, 0x44, 
  0x5a, 0xea, 0x28, 0x43, 0x36, 0xc7, 0xf6, 0x11, 0x8c, 0xa6, 0x72, 0xf3, 
  0xb6, 0x13, 0xa0, 0xaa, 0xe9, 0xc3, 0x81, 0xeb, 0xfa, 0x92, 0xf9, 0xd5, 
  0xb3, 0xb5, 0x45, 0xea, 0xf3, 0x0f, 0xec, 0x0b, 0xea, 0xc1, 0xe2, 0xd8, 
  0xd8, 0xb1, 0xd5, 0xc7, 0x01, 0x25, 0x45, 0x26, 0x69, 0x00, 0xf9, 0x34, 
  0x0f, 0xfa, 0xfd, 0xf8, 0x0d, 0x14, 0x08, 0x29, 0xd8, 0x21, 0x55, 0x1d, 
  0x79, 0x42, 0x2f, 0x4c, 0x4d, 0xf4, 0x07, 0xb8, 0xef, 0x3b, 0x4b, 0x25, 
  0x20, 0x2f, 0x09, 0x1c, 0xf3, 0x2b, 0xf8, 0x13, 0xf2, 0x35, 0x35, 0xfd, 
  0x3c, 0x13, 0x25, 0x2d, 0x26, 0xe2, 0x52, 0x0c, 0xd4, 0xf6, 0xd5, 0x1e, 
  0xed, 0x39, 0x08, 0x4a, 0xf3, 0xfa, 0xc2, 0xed, 0xfc, 0xb6, 0x49, 0x37, 
  0xa5, 0xf6, 0xdf, 0xe6, 0xe3, 0x1b, 0xdd, 0x7f, 0xdd, 0x99, 0xbc, 0x1d, 
  0xd2, 0xf8, 0xff, 0xe8, 0xdf, 0xfb, 0xc3, 0xd8, 0xb2, 0xd9, 0xd5, 0x52, 
  0x15, 0x9c, 0xa0, 0x0a, 0x05, 0x23, 0x15, 0x2f, 0x70, 0x0b, 0x43, 0x2d, 
  0x00, 0x33, 0x0d, 0xfd, 0x1f, 0x05, 0x40, 0x04, 0x2f, 0xff, 0x3d, 0x11, 
  0xe4, 0xfb, 0xfa, 0xfe, 0x34, 0x15, 0xfb, 0x52, 0x04, 0xd4, 0x07, 0x27, 
  0xd3, 0xaf, 0x10, 0xba, 0xc2, 0xe3, 0xbc, 0xee, 0xe7, 0xdb, 0xfd, 0x5c, 
  0xe3, 0xd5, 0xad, 0x17, 0x27, 0x2a, 0xe2, 0xf0, 0x07, 0xb4, 0x1d, 0xe5, 
  0xee, 0x2a, 0x12, 0x19, 0x21, 0x29, 0x02, 0x19, 0x3f, 0x52, 0x26, 0x3e, 
  0x5f, 0xc0, 0x1d, 0x22, 0x23, 0x12, 0xfb, 0x08, 0x44, 0x2e, 0x02, 0x24, 
  0xd7, 0xa6, 0xfc, 0x9d, 0xae, 0xc2, 0xca, 0xca, 0xe2, 0xe8, 0xbb, 0x30, 
  0x21, 0xb5, 0xb9, 0xff, 0xe9, 0x40, 0x1f, 0x28, 0x14, 0x4e, 0x49, 0x39, 
  0x36, 0xdb, 0x3e, 0x14, 0x3b, 0x1f, 0x19, 0x0a, 0x24, 0x4a, 0x0f, 0x7c, 
  0x0e, 0x4e, 0x4a, 0x09, 0x04, 0xff, 0x1a, 0x51, 0x08, 0xfa, 0x2f, 0x20, 
  0xec, 0xb5, 0x4f, 0x3e, 0x05, 0x35, 0xb3, 0xeb, 0x1d, 0xc5, 0xb5, 0x62, 
  0xf4, 0xde, 0xb7, 0x04, 0xe0, 0xdb, 0x3b, 0xde, 0x18, 0xaf, 0x09, 0xe0, 
  0xa9, 0xc8, 0xfe, 0xfe, 0xff, 0x0c, 0xc8, 0xdd, 0xab, 0xc5, 0x22, 0xd7, 
  0xcf, 0xd9, 0xd5, 0xa7, 0xd1, 0xb5, 0xcd, 0x05, 0xee, 0xcf, 0xbd, 0x9d, 
  0xf8, 0xe1, 0x79, 0x43, 0x1f, 0x5e, 0xdb, 0x10, 0x00, 0x09, 0xc1, 0x03, 
  0xdb, 0xee, 0x06, 0xe4, 0x20, 0x41, 0x3c, 0xfd, 0x4a, 0xb8, 0x2e, 0x28, 
  0xe4, 0x14, 0x49, 0x02, 0xf7, 0x24, 0xf7, 0x33, 0xae, 0xe5, 0x37, 0x0f, 
  0xf8, 0xce, 0xd0, 0xa6, 0xdb, 0xe7, 0xb5, 0x38, 0x51, 0xda, 0xa9, 0xc6, 
  0xf6, 0x15, 0x71, 0xf3, 0xec, 0x60, 0xe7, 0x5f, 0x2c, 0xe0, 0x02, 0xeb, 
  0x7f, 0xfa, 0x44, 0x29, 0xe1, 0xf3, 0x54, 0xeb, 0xbc, 0xec, 0xc9, 0xb7, 
  0xff, 0xb7, 0xdf, 0x3b, 0x22, 0x9f, 0xbb, 0xe6, 0xc7, 0x09, 0x22, 0xc7, 
  0x01, 0xbe, 0xf7, 0xd4, 0xc7, 0x04, 0xb0, 0xfb, 0xdf, 0x0f, 0xed, 0x08, 
  0x31, 0x01, 0x37, 0x0d, 0x1a, 0xee, 0xfc, 0x1b, 0x2a, 0xe7, 0x45, 0xee, 
  0x55, 0x07, 0x29, 0x52, 0xbe, 0xe7, 0x37, 0xec, 0x00, 0x22, 0xd9, 0x16, 
  0x29, 0xb9, 0x44, 0xbb, 0x70, 0xe1, 0xaf, 0xef, 0xb8, 0x23, 0x1a, 0x17, 
  0x18, 0xf2, 0x06, 0xc8, 0xec, 0xde, 0xe2, 0x16, 0xf0, 0x1a, 0xfa, 0xe7, 
  0x26, 0xe7, 0x43, 0x47, 0x33, 0x25, 0xfe, 0xea, 0x24, 0x1c, 0x3f, 0x60, 
  0x34, 0xdf, 0x21, 0x07, 0x01, 0x1d, 0xf3, 0xe0, 0x12, 0xc6, 0xea, 0x3a, 
  0x1c, 0x0c, 0x38, 0xd2, 0x7f, 0x0e, 0xef, 0x2f, 0xdc, 0x02, 0x51, 0xbf, 
  0xc3, 0xdd, 0xfd, 0x04, 0x07, 0xc8, 0x00, 0xeb, 0x2b, 0x03, 0x07, 0xdd, 
  0x11, 0x15, 0x38, 0x3b, 0x22, 0x33, 0x18, 0xf1, 0xf4, 0xfa, 0xf9, 0x30, 
  0x11, 0xfc, 0xdb, 0xff, 0xf1, 0x06, 0x3c, 0x24, 0x26, 0x5b, 0xf9, 0x46, 
  0x58, 0xed, 0x13, 0xc6, 0x0e, 0x0a, 0x4c, 0xf1, 0x1f, 0x0e, 0x16, 0x04, 
  0xac, 0x18, 0xf3, 0x28, 0x25, 0xef, 0xd8, 0x02, 0x11, 0xfc, 0x23, 0x10, 
  0x44, 0x49, 0x51, 0x40, 0x20, 0x24, 0x3d, 0x1e, 0x3e, 0x22, 0xd2, 0x07, 
  0x59, 0x08, 0xf0, 0x39, 0xc3, 0xd0, 0x01, 0x34, 0xae, 0x37, 0x01, 0xfd, 
  0x40, 0xe5, 0xf6, 0x19, 0xe1, 0xf4, 0xfa, 0xfc, 0xab, 0xf1, 0xfe, 0x12, 
  0xe0, 0x48, 0x1d, 0xdb, 0xfe, 0xce, 0x1a, 0x10, 0x0e, 0xed, 0x08, 0xb6, 
  0xbb, 0x02, 0x1d, 0xf4, 0x57, 0x0d, 0x26, 0x0a, 0xe4, 0xca, 0x37, 0xc0, 
  0x2a, 0x26, 0x09, 0x01, 0xe9, 0xa0, 0x3d, 0x2d, 0x17, 0x63, 0x03, 0x12, 
  0x13, 0x22, 0x9a, 0xf0, 0xfe, 0xe4, 0x27, 0xe9, 0xb3, 0x81, 0x4d, 0xe8, 
  0x9f, 0x10, 0xb4, 0x29, 0x25, 0xa9, 0xf3, 0xfa, 0x11, 0xde, 0xc1, 0x04, 
  0x9a, 0xfa, 0x2b, 0xcc, 0x24, 0xbd, 0x2e, 0xb2, 0xb5, 0x01, 0xf9, 0xdb, 
  0x79, 0x2b, 0xea, 0x98, 0x82, 0xea, 0xff, 0xff, 0x04, 0x00, 0x00, 0x00, 
  0x80, 0x00, 0x00, 0x00, 0xc4, 0xfc, 0xff, 0xff, 0xc7, 0xfe, 0xff, 0xff, 
  0xf8, 0x00, 0x00, 0x00, 0x63, 0xfa, 0xff, 0xff, 0x47, 0x01, 0x00, 0x00, 
  0x37, 0xfe, 0xff, 0xff, 0x9f, 0xff, 0xff, 0xff, 0x2e, 0x01, 0x00, 0x00, 
  0x3b, 0x01, 0x00, 0x00, 0x1f, 0x03, 0x00, 0x00, 0x90, 0xfe, 0xff, 0xff, 
  0x16, 0xff, 0xff, 0xff, 0xe4, 0x01, 0x00, 0x00, 0xfa, 0xff, 0xff, 0xff, 
  0x7b, 0x00, 0x00, 0x00, 0x5f, 0xfe, 0xff, 0xff, 0xfc, 0x02, 0x00, 0x00, 
  0x9c, 0x01, 0x00, 0x00, 0x5d, 0x03, 0x00, 0x00, 0xbd, 0x00, 0x00, 0x00, 
  0xfe, 0xfb, 0xff, 0xff, 0xed, 0xfd, 0xff, 0xff, 0x4a, 0x01, 0x00, 0x00, 
  0x7a, 0x02, 0x00, 0x00, 0x04, 0x01, 0x00, 0x00, 0xd2, 0x02, 0x00, 0x00, 
  0xf9, 0xff, 0xff, 0xff, 0x28, 0x02, 0x00, 0x00, 0x6a, 0x03, 0x00, 0x00, 
  0xfb, 0x03, 0x00, 0x00, 0x3e, 0x02, 0x00, 0x00, 0x72, 0x02, 0x00, 0x00, 
  0x0e, 0xeb, 0xff, 0xff, 0x04, 0x00, 0x00, 0x00, 0x00, 0x14, 0x00, 0x00, 
  0xfe, 0xe5, 0x19, 0x05, 0x10, 0xff, 0x17, 0xf4, 0xf6, 0x18, 0xea, 0xdc, 
  0xf1, 0xf5, 0x05, 0xf5, 0x26, 0xfd, 0x15, 0x2d, 0x00, 0x05, 0x02, 0xf3, 
  0x03, 0x1c, 0xf3, 0xf3, 0x05, 0x0d, 0xfb, 0xf9, 0x06, 0xe4, 0xee, 0x13, 
  0xef, 0x05, 0xda, 0xf0, 0xea, 0x08, 0xed, 0x16, 0x10, 0xe8, 0xf9, 0xff, 
  0x11, 0xfa, 0x03, 0x04, 0x02, 0xf8, 0x11, 0x0d, 0x08, 0xe5, 0x0a, 0x0a, 
  0xd8, 0xf0, 0x03, 0x17, 0x09, 0x00, 0x14, 0xf9, 0x1e, 0x10, 0x0e, 0x00, 
  0xf1, 0xfd, 0x0b, 0xe5, 0xf6, 0xe7, 0xef, 0xf4, 0x0e, 0x0c, 0xfc, 0x10, 
  0xdd, 0xe2, 0xe0, 0xfc, 0xfe, 0xf8, 0x08, 0x1d, 0xf8, 0x37, 0x21, 0x13, 
  0xe3, 0xf8, 0x23, 0xe5, 0xf5, 0xfe, 0xe8, 0xfc, 0xe8, 0xed, 0xfa, 0x05, 
  0x0d, 0x1b, 0xf2, 0xfb, 0x05, 0x07, 0xf1, 0xf8, 0xed, 0xdf, 0xf9, 0x12, 
  0x03, 0x0d, 0x1a, 0x0a, 0x07, 0x11, 0xf2, 0x04, 0x06, 0x0f, 0xfb, 0x09, 
  0x17, 0x08, 0x2a, 0x0e, 0x03, 0xd7, 0x02, 0x18, 0x22, 0xf7, 0x07, 0x0a, 
  0x07, 0x13, 0x2d, 0x29, 0x05, 0xeb, 0xfb, 0x0d, 0x26, 0x1e, 0xc8, 0x12, 
  0x25, 0x0d, 0x08, 0xec, 0xd6, 0xe2, 0xf2, 0xe8, 0x18, 0xc7, 0xe5, 0xdb, 
  0xed, 0xf4, 0xee, 0xe5, 0xea, 0x24, 0xfa, 0xea, 0xfc, 0x1f, 0x07, 0x01, 
  0xfa, 0xeb, 0xc7, 0xfd, 0xd2, 0xd4, 0xcf, 0x19, 0xea, 0x20, 0x12, 0x2a, 
  0x03, 0xed, 0x09, 0x05, 0xf3, 0x01, 0x1c, 0x01, 0x3d, 0x07, 0xe7, 0xe8, 
  0x17, 0xed, 0x2a, 0x28, 0x1b, 0xe7, 0xfd, 0xed, 0xf6, 0xfa, 0xff, 0x2d, 
  0xed, 0xfe, 0xe3, 0xeb, 0x0b, 0xfb, 0xd8, 0xe2, 0x11, 0xec, 0x1b, 0x09, 
  0xfc, 0xfb, 0xfa, 0x0f, 0xed, 0xf8, 0x01, 0xef, 0xf9, 0xdf, 0xe7, 0x0b, 
  0x02, 0xda, 0x1f, 0x07, 0x0d, 0xd4, 0x0b, 0x03, 0x00, 0xf5, 0xff, 0xf9, 
  0x12, 0x24, 0xed, 0xd8, 0xfe, 0x13, 0xf8, 0x0b, 0xf8, 0xf3, 0x1a, 0x0e, 
  0x0b, 0x0c, 0x0d, 0xfa, 0xf2, 0x14, 0x15, 0x08, 0x18, 0xf0, 0x10, 0x03, 
  0x11, 0x03, 0x0e, 0xf7, 0x11, 0x16, 0x04, 0xd7, 0x1b, 0xfd, 0x11, 0x12, 
  0x0a, 0x1c, 0xf9, 0xf6, 0xf6, 0xfa, 0xfc, 0x0f, 0xe8, 0xf2, 0x18, 0x03, 
  0xdf, 0x08, 0xc8, 0xd2, 0xf5, 0x02, 0xe1, 0xc7, 0x02, 0x02, 0x28, 0xfd, 
  0xf9, 0x0b, 0x00, 0xf7, 0x07, 0x14, 0xd7, 0xe4, 0xfe, 0x02, 0x17, 0xf3, 
  0xfd, 0x0b, 0x2b, 0x12, 0x2a, 0x30, 0xf0, 0x02, 0xe8, 0xf9, 0x13, 0x01, 
  0xfb, 0x22, 0x1c, 0xed, 0x0a, 0x08, 0x15, 0xed, 0x26, 0x1d, 0xf0, 0xc3, 
  0x02, 0x1c, 0x07, 0xdd, 0xf8, 0x18, 0x00, 0x04, 0xfe, 0xfd, 0x22, 0x1b, 
  0x12, 0xf6, 0x08, 0x21, 0x0c, 0xef, 0x10, 0x05, 0x09, 0xef, 0x18, 0xf1, 
  0x23, 0x09, 0x21, 0x1b, 0x11, 0x1c, 0x0a, 0x0e, 0x0e, 0x02, 0x06, 0xea, 
  0xff, 0xf3, 0x04, 0xfe, 0x11, 0x21, 0x08, 0xfd, 0x0d, 0xfc, 0x08, 0x01, 
  0x07, 0x0c, 0x05, 0xf3, 0x18, 0xfd, 0xf8, 0x03, 0xfb, 0x15, 0x1c, 0xff, 
  0xfa, 0x10, 0x1a, 0x01, 0x2b, 0xf7, 0x05, 0x00, 0x01, 0xf6, 0x12, 0x04, 
  0x14, 0x09, 0x06, 0x13, 0xfe, 0xfd, 0x20, 0x0a, 0xec, 0xe8, 0x11, 0x03, 
  0x14, 0x18, 0x0a, 0x02, 0xfd, 0x13, 0x05, 0xf4, 0x01, 0x08, 0xfc, 0xec, 
  0xee, 0xff, 0xf9, 0x14, 0x00, 0x19, 0xf6, 0xe7, 0x07, 0xf4, 0xf3, 0x0d, 
  0xfb, 0x20, 0xd7, 0x08, 0xff, 0xfe, 0x0e, 0xf7, 0x1d, 0x01, 0xfa, 0xff, 
  0xf2, 0xfa, 0xfc, 0x03, 0xff, 0x0e, 0x09, 0x0e, 0x11, 0x03, 0x08, 0x0c, 
  0x22, 0xff, 0x1e, 0xff, 0xf9, 0xf7, 0xf8, 0x14, 0xfd, 0xf7, 0xdd, 0x0f, 
  0xf8, 0x30, 0xfe, 0xfc, 0x12, 0x01, 0xfc, 0x08, 0xfb, 0x1c, 0x12, 0x07, 
  0x07, 0x09, 0xf8, 0xf3, 0x04, 0xfa, 0x13, 0xe6, 0x14, 0xd2, 0xf7, 0xd0, 
  0xfb, 0xfc, 0xfe, 0xd7, 0xec, 0xea, 0xd7, 0xda, 0x0c, 0x0e, 0xee, 0x0e, 
  0xf9, 0xec, 0x19, 0x06, 0xe7, 0xd4, 0xe0, 0x0a, 0x1e, 0xf2, 0x08, 0xe8, 
  0x18, 0xfe, 0xf3, 0x2e, 0xf5, 0xff, 0x0f, 0xe2, 0x4a, 0xfb, 0xf2, 0x10, 
  0x25, 0xeb, 0xf7, 0xd7, 0x34, 0x48, 0x57, 0x19, 0xe3, 0x4d, 0x2f, 0x00, 
  0xcf, 0xe6, 0xfb, 0x10, 0x30, 0x02, 0xbd, 0xf3, 0x34, 0x51, 0x26, 0xf8, 
  0xfe, 0xf0, 0x0a, 0x08, 0x08, 0x02, 0xeb, 0x03, 0x27, 0x05, 0xe5, 0xf9, 
  0x2a, 0xe3, 0x23, 0x23, 0x0b, 0x13, 0xff, 0x18, 0xee, 0xfa, 0xfa, 0xf3, 
  0xee, 0xe1, 0x06, 0xec, 0x02, 0x15, 0xf7, 0x1e, 0xe6, 0x13, 0x00, 0xfe, 
  0x04, 0xf8, 0x06, 0x0d, 0xfb, 0xd9, 0xf1, 0xfb, 0x02, 0x01, 0xf9, 0xfa, 
  0x13, 0xf4, 0x0b, 0x0b, 0x00, 0x0b, 0x12, 0xfa, 0xf1, 0x11, 0xf7, 0xfb, 
  0xf7, 0x1a, 0xfc, 0xfc, 0x01, 0x12, 0xc7, 0xed, 0xd9, 0xe6, 0xe3, 0xb7, 
  0xd4, 0xf5, 0xd3, 0x81, 0x0f, 0xd2, 0xec, 0x01, 0x1e, 0xe4, 0xd2, 0xf1, 
  0xf1, 0xd4, 0xe9, 0xfd, 0x3c, 0x16, 0xfc, 0xe3, 0x2e, 0xc6, 0xbd, 0x1b, 
  0x0f, 0x00, 0x19, 0xd7, 0x35, 0xf1, 0x07, 0xf9, 0x2c, 0xea, 0xf5, 0xc8, 
  0x09, 0xf0, 0x51, 0x01, 0x20, 0x44, 0x05, 0xd9, 0xe4, 0xec, 0x1f, 0xfd, 
  0x4e, 0x1a, 0xe5, 0x8d, 0x2a, 0x0f, 0x21, 0xe1, 0x0f, 0xfb, 0x2e, 0xdc, 
  0xda, 0xc6, 0x11, 0xc9, 0x3b, 0xda, 0x1b, 0xfe, 0xd3, 0x13, 0x25, 0xba, 
  0xf7, 0x1a, 0xfe, 0xc1, 0x08, 0xd9, 0xfb, 0xeb, 0xff, 0x0d, 0xfd, 0xdc, 
  0xe9, 0x25, 0x57, 0xcf, 0xf5, 0xeb, 0x11, 0xf3, 0xf4, 0x06, 0xf1, 0xf9, 
  0xeb, 0xf2, 0xde, 0xeb, 0xfc, 0xf6, 0xf6, 0x14, 0x11, 0x13, 0x06, 0xf4, 
  0xe5, 0xec, 0x0c, 0xee, 0xf3, 0x19, 0xf1, 0x04, 0x11, 0xf7, 0xe0, 0xf8, 
  0xdc, 0xe9, 0xf0, 0xe9, 0xc1, 0xec, 0xf0, 0xe9, 0xe3, 0x08, 0x05, 0xfb, 
  0x24, 0xff, 0xd1, 0xd8, 0xfe, 0xfa, 0x11, 0x10, 0x0b, 0xe9, 0xee, 0x09, 
  0xf4, 0x0c, 0x01, 0x06, 0x08, 0xf5, 0xfa, 0xfe, 0xdf, 0xea, 0xed, 0x01, 
  0x25, 0xfc, 0xf7, 0x19, 0x02, 0x1c, 0xee, 0x07, 0x11, 0xef, 0xf9, 0x01, 
  0x2d, 0x58, 0x0a, 0x16, 0xdc, 0xdb, 0x13, 0x0d, 0x2b, 0xe0, 0xfd, 0xe3, 
  0xfb, 0xc8, 0x28, 0xeb, 0x18, 0xe4, 0xf6, 0x10, 0xf2, 0xed, 0xd6, 0xf9, 
  0x9c, 0x09, 0xf7, 0xf7, 0xe4, 0x01, 0x07, 0xd6, 0xfc, 0x01, 0x07, 0xef, 
  0xe6, 0xdc, 0xf1, 0xf5, 0xd9, 0xf7, 0xfc, 0x07, 0xd2, 0xf0, 0xf5, 0xec, 
  0xee, 0x00, 0x1a, 0xf4, 0xfe, 0x03, 0xee, 0xf8, 0xeb, 0xfc, 0xe0, 0xdf, 
  0x0e, 0xef, 0x11, 0xf7, 0x07, 0x04, 0x13, 0x0d, 0xf1, 0x03, 0x02, 0x18, 
  0xf2, 0xfd, 0xfc, 0xf8, 0x1c, 0xf8, 0xe6, 0x16, 0xe2, 0xe8, 0x0c, 0xed, 
  0xf7, 0x07, 0xfb, 0x16, 0x0a, 0xe9, 0xf1, 0x00, 0x0f, 0x21, 0x05, 0xf3, 
  0xec, 0x14, 0x13, 0x10, 0xf7, 0x16, 0xfc, 0x12, 0xe9, 0x0e, 0x0b, 0x25, 
  0x11, 0xf9, 0xf2, 0x02, 0xe7, 0xeb, 0x03, 0xcc, 0x07, 0x0a, 0xe9, 0xe0, 
  0xde, 0x0f, 0x12, 0xe2, 0xe9, 0xfc, 0xf5, 0xe0, 0x02, 0x1d, 0xf8, 0x0d, 
  0xb4, 0x1c, 0x01, 0xe7, 0xe8, 0x17, 0xf3, 0x25, 0x37, 0xe6, 0xfb, 0xfc, 
  0xe6, 0xf6, 0xff, 0xf8, 0xfa, 0xeb, 0xf7, 0x05, 0x03, 0x20, 0xf3, 0xfe, 
  0x04, 0x02, 0xfb, 0x0c, 0xfd, 0x14, 0x02, 0x10, 0xd3, 0xd1, 0x10, 0x05, 
  0xcb, 0xec, 0x07, 0x03, 0x18, 0xf8, 0xff, 0x0b, 0xf4, 0x1d, 0xfc, 0xee, 
  0x0a, 0x0d, 0x08, 0xf6, 0xff, 0xf5, 0x05, 0xea, 0x1c, 0x05, 0xfe, 0x00, 
  0x13, 0x08, 0x22, 0x17, 0xec, 0x03, 0x01, 0x16, 0xe6, 0xfe, 0x11, 0xff, 
  0x15, 0x07, 0xf6, 0xf6, 0xc3, 0x2e, 0xf3, 0xfa, 0x16, 0xed, 0x0f, 0x06, 
  0xfc, 0xfa, 0x04, 0x2b, 0x10, 0x03, 0xea, 0x37, 0xfd, 0x0b, 0xfa, 0x23, 
  0x12, 0xf4, 0x0c, 0x02, 0xbf, 0xe7, 0x1f, 0x00, 0xd1, 0x0f, 0xfa, 0xeb, 
  0xf9, 0xfd, 0xf8, 0x04, 0xba, 0xea, 0x10, 0x0d, 0xea, 0x07, 0xf3, 0x18, 
  0xf6, 0xe4, 0xd8, 0xed, 0xdf, 0xbd, 0x0a, 0x0b, 0x1a, 0x10, 0xea, 0x32, 
  0xff, 0xef, 0xf3, 0xef, 0x0e, 0xc0, 0x1f, 0xfa, 0x13, 0xfe, 0x1f, 0x09, 
  0xf7, 0xde, 0xfd, 0x07, 0xd6, 0x17, 0x00, 0xd4, 0xf2, 0x09, 0xdb, 0xdd, 
  0xd3, 0xe0, 0x11, 0xe6, 0x00, 0xda, 0xf1, 0x18, 0x0b, 0x15, 0xe5, 0x00, 
  0x07, 0x1e, 0x12, 0xdf, 0x04, 0x0d, 0xfa, 0x06, 0xfe, 0xf9, 0x06, 0xed, 
  0xf8, 0x0e, 0xfb, 0xf1, 0xe4, 0xee, 0xf6, 0x01, 0x05, 0x00, 0x01, 0x05, 
  0x10, 0xee, 0xe0, 0x00, 0x10, 0xe6, 0x01, 0xef, 0xf6, 0x0c, 0xf2, 0xf3, 
  0xf0, 0xda, 0x0e, 0xfe, 0xeb, 0xf9, 0xc5, 0x13, 0xe1, 0x02, 0x10, 0x26, 
  0x0b, 0x02, 0xf1, 0xe0, 0xde, 0xe5, 0x0a, 0xe1, 0x0a, 0x0c, 0x14, 0x0a, 
  0xa1, 0xfc, 0xff, 0x23, 0xa4, 0x17, 0x05, 0x06, 0xf6, 0xf8, 0xf3, 0x12, 
  0x11, 0x07, 0x01, 0xee, 0xf4, 0x19, 0x15, 0x12, 0xda, 0x20, 0xdf, 0xfa, 
  0xfe, 0x2a, 0xe5, 0xf7, 0xf5, 0x02, 0x11, 0xe8, 0x02, 0x19, 0xd3, 0xeb, 
  0xf4, 0xe0, 0xe9, 0xc7, 0x08, 0x02, 0x16, 0x06, 0x0b, 0x0b, 0x0d, 0xe6, 
  0x12, 0xf4, 0x09, 0xfe, 0x0f, 0x0b, 0xff, 0x00, 0x31, 0x35, 0x0b, 0xf3, 
  0x03, 0x17, 0x17, 0xfb, 0x01, 0x01, 0x0b, 0x22, 0x04, 0xd9, 0xd9, 0xfd, 
  0x14, 0x04, 0xf8, 0x1d, 0x07, 0xe7, 0x13, 0xfe, 0xf5, 0xda, 0xfc, 0x21, 
  0xfb, 0x03, 0x12, 0xf8, 0xea, 0x1b, 0x0a, 0xf8, 0x06, 0x15, 0xf7, 0x00, 
  0xf8, 0x02, 0xff, 0x04, 0x09, 0xf3, 0xe8, 0xfc, 0x13, 0x19, 0xfc, 0xfa, 
  0x1d, 0xf9, 0x0a, 0x03, 0x01, 0x0b, 0x33, 0xfa, 0xf3, 0xe9, 0x12, 0x23, 
  0xf6, 0xec, 0xf0, 0x02, 0xf3, 0x0c, 0xf6, 0xf1, 0xae, 0xdf, 0x17, 0xe5, 
  0xb3, 0xe1, 0xe6, 0xf7, 0x25, 0x16, 0x07, 0xf1, 0x02, 0x1b, 0x0e, 0xfb, 
  0x2e, 0xb3, 0xe4, 0x02, 0x15, 0x07, 0x25, 0xfb, 0xfb, 0x9c, 0x01, 0x03, 
  0xf3, 0x0b, 0xf9, 0xfb, 0x2a, 0x04, 0x14, 0x0d, 0xe2, 0x13, 0x04, 0x07, 
  0xd8, 0x03, 0x46, 0xfc, 0xfc, 0xef, 0xe6, 0xc5, 0x47, 0x0d, 0xd0, 0x0a, 
  0x0d, 0x1f, 0xd6, 0x0f, 0xe6, 0xec, 0xf6, 0xf4, 0x16, 0x06, 0xec, 0xfb, 
  0xf3, 0x03, 0xf0, 0x0e, 0x05, 0xf0, 0x20, 0x01, 0xfb, 0xf9, 0xf2, 0xe3, 
  0xfe, 0xf3, 0xff, 0x04, 0x1b, 0x16, 0xc8, 0xe7, 0x0e, 0x18, 0x16, 0xe9, 
  0xec, 0xf1, 0xfc, 0xf2, 0xd8, 0x09, 0xe9, 0xf1, 0xf9, 0xea, 0xe0, 0x03, 
  0xfa, 0xfe, 0xe6, 0x00, 0x06, 0xff, 0xd9, 0xf2, 0xf9, 0x02, 0xf1, 0xff, 
  0xf3, 0x03, 0x03, 0xf9, 0xe9, 0xdc, 0xef, 0xf1, 0x12, 0x02, 0xed, 0x09, 
  0xdf, 0xf4, 0xe9, 0xf5, 0xe4, 0xe5, 0xf6, 0x05, 0xe6, 0xc6, 0xf7, 0x04, 
  0x1c, 0xeb, 0xdd, 0x19, 0xeb, 0xed, 0xdd, 0xde, 0xf4, 0xcb, 0xca, 0xfb, 
  0xe3, 0x01, 0xf3, 0xf0, 0xef, 0x10, 0xee, 0x05, 0x1f, 0xe2, 0x02, 0x04, 
  0xf9, 0xf6, 0xe5, 0xe6, 0xd8, 0xf1, 0x07, 0xfa, 0xe2, 0xef, 0xff, 0xf3, 
  0x04, 0x06, 0xe5, 0x0c, 0xcd, 0x02, 0x14, 0xdb, 0x03, 0xef, 0xe0, 0x06, 
  0xf6, 0xdc, 0xeb, 0xf5, 0x03, 0xe4, 0x00, 0xf5, 0xdd, 0xec, 0xe8, 0x09, 
  0xf7, 0xff, 0x12, 0xf0, 0xe5, 0x03, 0xf3, 0xe7, 0xe1, 0xec, 0x07, 0xec, 
  0xf1, 0xfa, 0xef, 0xdc, 0x08, 0xdb, 0xf2, 0x0a, 0xfc, 0xe4, 0xeb, 0x04, 
  0xeb, 0xf2, 0x05, 0xed, 0xfc, 0xff, 0xe7, 0xe8, 0xee, 0x08, 0xf5, 0x0b, 
  0xf3, 0x26, 0xed, 0xf2, 0x14, 0x0a, 0xef, 0xfd, 0xf2, 0xfb, 0x17, 0xfc, 
  0xd7, 0xf0, 0xe8, 0xed, 0xea, 0xf5, 0xf3, 0x06, 0x06, 0x02, 0xf0, 0xeb, 
  0xf0, 0xf0, 0x03, 0x1d, 0xee, 0x09, 0xf4, 0xc3, 0x05, 0xf5, 0xe4, 0x0c, 
  0x87, 0xf4, 0xed, 0x07, 0xc2, 0xfd, 0xec, 0x01, 0xd8, 0xe2, 0xc9, 0x09, 
  0x12, 0xbc, 0xf6, 0xfb, 0x18, 0x1f, 0x12, 0x0e, 0xd4, 0xe6, 0xf8, 0xea, 
  0xc8, 0x02, 0xf2, 0x02, 0xf9, 0xfe, 0xc6, 0x0c, 0x0a, 0x12, 0xf2, 0xf3, 
  0x21, 0x17, 0x02, 0xa3, 0xf6, 0xd3, 0x35, 0x27, 0xfb, 0xe0, 0x01, 0x06, 
  0x0a, 0x1b, 0x0a, 0xba, 0xe1, 0xf3, 0xc9, 0xf9, 0x13, 0xed, 0x20, 0xfa, 
  0x0b, 0x11, 0xee, 0x15, 0xf9, 0xf9, 0x06, 0xe7, 0xf9, 0x1e, 0x08, 0x17, 
  0xdd, 0x10, 0xee, 0xef, 0xe3, 0xe3, 0xdf, 0xeb, 0x04, 0x1b, 0xef, 0xeb, 
  0xf4, 0xfc, 0xf3, 0x0e, 0xef, 0x00, 0x0a, 0x01, 0x05, 0x20, 0x0f, 0x1b, 
  0xfb, 0x06, 0x0a, 0xf1, 0x16, 0x0f, 0xe4, 0x08, 0xdd, 0x04, 0x0a, 0x0b, 
  0xde, 0xf4, 0x09, 0x05, 0x0d, 0x05, 0xfa, 0xfa, 0x2b, 0xe6, 0x10, 0x04, 
  0xf9, 0xef, 0x0a, 0xfd, 0x06, 0xf2, 0x1e, 0x0b, 0xc2, 0x10, 0x01, 0x0e, 
  0xf1, 0xe6, 0x12, 0x01, 0x13, 0x0a, 0x30, 0xdc, 0xa5, 0xc9, 0xff, 0x07, 
  0x08, 0x12, 0x09, 0xef, 0xde, 0x1b, 0x1f, 0x11, 0xff, 0xc7, 0xe9, 0x29, 
  0x05, 0x01, 0xbf, 0x22, 0x0a, 0xf3, 0xef, 0x02, 0xeb, 0x08, 0x12, 0xe6, 
  0x08, 0xa4, 0x08, 0x06, 0x85, 0xe8, 0x10, 0x05, 0x0a, 0x13, 0xfa, 0xfb, 
  0x03, 0xff, 0xef, 0xe6, 0xf7, 0xd0, 0xf4, 0x08, 0xfc, 0x0d, 0xe5, 0x1a, 
  0x00, 0x18, 0x01, 0x03, 0xf7, 0xf3, 0x04, 0xfd, 0x01, 0xe7, 0x00, 0x0b, 
  0xf2, 0x09, 0xf6, 0x1e, 0x18, 0x13, 0xe1, 0x0f, 0x1c, 0xf7, 0x16, 0x1f, 
  0x01, 0xea, 0xe2, 0x18, 0xe3, 0xfa, 0xfd, 0x0d, 0xe2, 0xf1, 0xdd, 0xea, 
  0xe7, 0x10, 0xc1, 0xef, 0x07, 0xf6, 0x05, 0xff, 0xff, 0xe3, 0x04, 0x10, 
  0x12, 0x05, 0xdd, 0xe8, 0x35, 0x0b, 0xfd, 0xf9, 0x27, 0x00, 0xf1, 0x06, 
  0xf5, 0xdd, 0xef, 0x0f, 0x03, 0xee, 0xd1, 0xdb, 0x07, 0x03, 0x20, 0x02, 
  0x0e, 0x05, 0xfe, 0x1a, 0xf8, 0x06, 0xef, 0xea, 0x06, 0xfc, 0xfa, 0xfc, 
  0xa3, 0x15, 0x0e, 0xe4, 0x00, 0x0a, 0xf5, 0x00, 0x0e, 0x0d, 0xf4, 0x06, 
  0xfd, 0x19, 0xfd, 0x0e, 0xfa, 0xfc, 0xec, 0x08, 0x15, 0x03, 0xde, 0xfd, 
  0xf4, 0xe8, 0x04, 0x26, 0x17, 0x11, 0xdb, 0x07, 0xff, 0xf6, 0x15, 0xe5, 
  0xcf, 0xfc, 0xe8, 0xf4, 0xf2, 0xfd, 0xe4, 0x08, 0x01, 0xf2, 0xe6, 0x05, 
  0x07, 0xc2, 0x24, 0x02, 0x12, 0x02, 0xd5, 0x0b, 0xfb, 0x03, 0xde, 0x01, 
  0x14, 0x04, 0xe5, 0x0e, 0x0d, 0x01, 0x0d, 0x0c, 0xf9, 0xec, 0xe7, 0x1e, 
  0xd8, 0xf4, 0x11, 0x10, 0xe4, 0xe8, 0xec, 0xdd, 0xea, 0xff, 0xef, 0xfc, 
  0x10, 0xfc, 0xec, 0x10, 0xd6, 0xf7, 0xfd, 0x01, 0x2f, 0xd7, 0xf5, 0xf8, 
  0xeb, 0xf7, 0xf8, 0xf1, 0xf1, 0x0f, 0x1a, 0xf6, 0x0a, 0x0b, 0xfb, 0x15, 
  0x0b, 0xe9, 0xf3, 0xf0, 0xfb, 0xdd, 0xf0, 0x01, 0xea, 0xd0, 0xeb, 0x10, 
  0xe8, 0xef, 0xea, 0x06, 0x0f, 0xf8, 0xde, 0x14, 0x02, 0xd8, 0xf3, 0xbe, 
  0xc4, 0xfa, 0xec, 0xfb, 0xfa, 0x03, 0x13, 0xfe, 0xf8, 0xed, 0x00, 0xe3, 
  0x0d, 0xea, 0xef, 0xee, 0xf5, 0xf9, 0xf3, 0x0a, 0xea, 0xf2, 0xf1, 0xf9, 
  0x22, 0xe6, 0xeb, 0xf0, 0xe8, 0xda, 0x06, 0xee, 0xe1, 0x08, 0x0b, 0x09, 
  0x04, 0xec, 0xe9, 0x0c, 0xee, 0xf0, 0x06, 0xd7, 0x1e, 0xff, 0x34, 0xf4, 
  0xf4, 0xd7, 0xe7, 0xf6, 0x04, 0x0f, 0xdd, 0xe8, 0x1e, 0xf3, 0xd5, 0xe1, 
  0x01, 0xef, 0xf3, 0xf7, 0xf7, 0xff, 0x01, 0xf8, 0x0b, 0xd2, 0x07, 0xf7, 
  0xd2, 0xec, 0xf2, 0xf6, 0xe9, 0xf1, 0xe9, 0xcb, 0xfb, 0xea, 0xfc, 0xef, 
  0xfa, 0x0b, 0xc6, 0xc8, 0xec, 0xf6, 0xe3, 0xee, 0x1e, 0xf7, 0x0b, 0xf1, 
  0x08, 0x00, 0xf3, 0x19, 0x16, 0xd7, 0x17, 0x0a, 0x4e, 0x20, 0xf2, 0x03, 
  0x39, 0xf9, 0xe7, 0xb6, 0x2c, 0x1d, 0x3b, 0xf3, 0xf9, 0x36, 0xed, 0x26, 
  0xfa, 0xe8, 0xf5, 0x0b, 0x16, 0x17, 0xd2, 0xe8, 0x08, 0x59, 0x2f, 0xdb, 
  0x05, 0x17, 0x0a, 0xef, 0xee, 0x08, 0xd3, 0xe7, 0xf3, 0xed, 0xf8, 0x06, 
  0xe8, 0xe9, 0x05, 0xe6, 0xf5, 0x1d, 0x06, 0x1c, 0xe9, 0xf3, 0x05, 0x04, 
  0x03, 0xef, 0x1b, 0xed, 0xee, 0xef, 0xfa, 0xfd, 0x15, 0xfc, 0x01, 0xfd, 
  0xe8, 0xfa, 0x0c, 0xed, 0xf4, 0x08, 0xf7, 0xd1, 0xe5, 0x06, 0xe4, 0xec, 
  0xea, 0xd5, 0xdd, 0xe1, 0x04, 0xd0, 0xf5, 0xe2, 0xe0, 0xf4, 0xeb, 0xf6, 
  0xf8, 0xf2, 0xed, 0xf8, 0x1b, 0x02, 0x00, 0xf9, 0xe4, 0x00, 0x15, 0xed, 
  0xf5, 0x10, 0x21, 0x07, 0x05, 0xef, 0xee, 0x09, 0x02, 0xf7, 0x0f, 0x07, 
  0xe6, 0xec, 0x10, 0xf2, 0xf4, 0x07, 0x02, 0x11, 0xc7, 0xef, 0x1a, 0x06, 
  0xd5, 0xff, 0x02, 0x0f, 0x16, 0x04, 0xdd, 0xfb, 0xfc, 0xf9, 0x18, 0x11, 
  0x15, 0xfc, 0xe9, 0x28, 0xe1, 0xe9, 0x1f, 0x22, 0x13, 0xe7, 0x01, 0x10, 
  0xfc, 0x16, 0x0a, 0x13, 0xf8, 0x1b, 0x19, 0x20, 0x0d, 0x12, 0xfc, 0x09, 
  0xfb, 0x13, 0x07, 0xf4, 0x07, 0x4a, 0x03, 0x0f, 0x12, 0x01, 0xce, 0x05, 
  0xf8, 0xba, 0xd7, 0xff, 0xe7, 0xfb, 0x03, 0x21, 0xfb, 0xe8, 0x10, 0xfb, 
  0xfd, 0x0e, 0xb9, 0x04, 0x0a, 0x1e, 0xe2, 0xfb, 0xec, 0xd4, 0x27, 0xe2, 
  0xfa, 0xe4, 0x27, 0x13, 0xf4, 0xf3, 0xc9, 0xcf, 0xf3, 0x03, 0xfa, 0xe8, 
  0x17, 0x0b, 0xf7, 0xfc, 0x00, 0x06, 0xf4, 0x01, 0xf0, 0xdc, 0xd9, 0xf7, 
  0xf3, 0x12, 0xff, 0xe8, 0xfa, 0xf4, 0xe0, 0x0c, 0x0b, 0xde, 0xc5, 0x14, 
  0x06, 0xf3, 0x09, 0x08, 0xed, 0xd1, 0x04, 0xf4, 0x06, 0x05, 0xe3, 0xf3, 
  0x00, 0xf6, 0x10, 0xe8, 0xf5, 0xf0, 0xfe, 0xe5, 0x02, 0xf0, 0xee, 0xfc, 
  0x0a, 0xd7, 0xbe, 0xda, 0xc5, 0xe2, 0xe3, 0xfb, 0x08, 0x18, 0xc8, 0x11, 
  0xca, 0xf9, 0x08, 0xfc, 0xf7, 0x09, 0xe7, 0xfa, 0xdc, 0xec, 0xe7, 0x31, 
  0x23, 0x18, 0xdb, 0xee, 0xd4, 0xde, 0xe2, 0xdd, 0xde, 0xf3, 0xd9, 0xec, 
  0xf6, 0x45, 0xe6, 0xb5, 0xf8, 0x25, 0x26, 0xfe, 0xdb, 0xe7, 0xfe, 0xe1, 
  0xd5, 0x21, 0xdc, 0xd4, 0xe2, 0xcd, 0xe2, 0x24, 0xe8, 0xf7, 0x1f, 0x01, 
  0x04, 0xe8, 0xd7, 0x0f, 0xed, 0xdc, 0x14, 0xf6, 0x00, 0x1d, 0xd6, 0x0b, 
  0xfc, 0xf4, 0xed, 0xef, 0xdd, 0xfe, 0xea, 0xe3, 0x0d, 0x19, 0xe0, 0xfb, 
  0xd9, 0xeb, 0xea, 0xdc, 0xf0, 0xe0, 0xcb, 0x08, 0xf6, 0xfc, 0xfb, 0xf2, 
  0xf8, 0xd8, 0xfe, 0x1d, 0xff, 0xed, 0xf3, 0xcc, 0xf9, 0x00, 0xe4, 0xec, 
  0xe9, 0xdf, 0xe8, 0xd9, 0xf9, 0x07, 0xe7, 0xf4, 0xff, 0xec, 0xe1, 0x04, 
  0xdd, 0xf9, 0xc8, 0xf9, 0xea, 0xe9, 0xf6, 0x25, 0xc3, 0xf9, 0xdc, 0xe2, 
  0xf5, 0xea, 0x35, 0xd1, 0xf8, 0x07, 0xeb, 0xdc, 0xe7, 0xf3, 0xfe, 0x02, 
  0x13, 0xf6, 0xe8, 0xd5, 0xe5, 0xe1, 0xd8, 0xde, 0x09, 0x10, 0xde, 0xeb, 
  0xdc, 0xd9, 0x03, 0xf5, 0xed, 0xfe, 0xfd, 0xef, 0x00, 0x01, 0x19, 0xe7, 
  0xe0, 0xbb, 0xe6, 0xfc, 0xdc, 0xec, 0xe6, 0xe4, 0xde, 0xd1, 0xf4, 0xeb, 
  0xed, 0xd6, 0xe3, 0xf8, 0xdd, 0xd3, 0xe0, 0xf3, 0x11, 0x02, 0xdf, 0x13, 
  0xf3, 0xeb, 0x05, 0xfd, 0xf6, 0xff, 0xe7, 0xe7, 0xec, 0xf2, 0x00, 0x07, 
  0xe1, 0xfb, 0x02, 0xff, 0x02, 0xf1, 0xef, 0xfb, 0xdd, 0x06, 0x00, 0xeb, 
  0xdc, 0xe0, 0xf4, 0x02, 0xee, 0x19, 0x08, 0x1c, 0xca, 0xe8, 0x0f, 0x0b, 
  0xfd, 0xfe, 0xfc, 0x1e, 0x1f, 0xff, 0xf9, 0xe5, 0xe8, 0xe4, 0x0b, 0xf2, 
  0x2b, 0x1a, 0x03, 0x09, 0x1e, 0x04, 0x00, 0xdf, 0x27, 0xd2, 0xe9, 0x2b, 
  0xdb, 0x22, 0x09, 0x03, 0x32, 0xe6, 0xf8, 0x0a, 0x10, 0xee, 0x09, 0xac, 
  0xf9, 0x03, 0x1e, 0xea, 0x0d, 0x2e, 0xfb, 0xc4, 0xfd, 0xf7, 0xfa, 0xa8, 
  0xdd, 0x0e, 0xdd, 0xfc, 0x1b, 0x3c, 0x9c, 0xd8, 0xec, 0x15, 0xe0, 0xfb, 
  0xef, 0x08, 0xe8, 0xb2, 0xcd, 0x19, 0xe8, 0x5a, 0x07, 0xe7, 0xda, 0xe0, 
  0xfe, 0xcd, 0xd3, 0xf3, 0xf8, 0x1a, 0x08, 0x2d, 0xe5, 0xf0, 0x37, 0x01, 
  0xf6, 0xb7, 0xbf, 0x22, 0xf1, 0xf2, 0x0e, 0x00, 0x11, 0x01, 0x20, 0x0e, 
  0x0b, 0xcc, 0xe3, 0x20, 0x1b, 0x15, 0xdb, 0x14, 0x04, 0x09, 0x0d, 0xea, 
  0xe4, 0x0b, 0x07, 0x13, 0x05, 0xed, 0x10, 0x06, 0x03, 0xf6, 0xcb, 0x0a, 
  0xf6, 0x04, 0x01, 0xf5, 0xf3, 0x0b, 0x16, 0xfb, 0x01, 0x11, 0xfa, 0xf7, 
  0x1f, 0x14, 0x12, 0x06, 0xfb, 0x00, 0xee, 0xd4, 0xfd, 0xed, 0x0c, 0xf0, 
  0xe9, 0x1a, 0x0b, 0xb1, 0x45, 0x1b, 0x0e, 0x0d, 0x10, 0x1d, 0x0a, 0xee, 
  0x16, 0xf3, 0x00, 0x02, 0x1a, 0xff, 0x12, 0xee, 0xf7, 0xae, 0xf2, 0x03, 
  0xf7, 0x0f, 0x06, 0x11, 0xf6, 0x1b, 0x16, 0x15, 0xe1, 0xe9, 0xe2, 0x1c, 
  0x21, 0xdf, 0xf6, 0xfb, 0xd2, 0xdf, 0x07, 0xd7, 0xfa, 0x0c, 0xdd, 0xe7, 
  0xd6, 0xef, 0xe6, 0x01, 0xf8, 0x2d, 0xa6, 0xf7, 0x00, 0xd5, 0xda, 0xf9, 
  0x13, 0xfd, 0xdf, 0xfb, 0xe2, 0x05, 0x10, 0x0d, 0xfc, 0xdc, 0x47, 0xf6, 
  0xeb, 0xca, 0xf9, 0xc6, 0xd9, 0xf4, 0xec, 0xf2, 0x01, 0x01, 0xd6, 0xba, 
  0x06, 0x00, 0xc3, 0x08, 0x0b, 0xdb, 0xe9, 0x04, 0xf6, 0xee, 0xf0, 0x03, 
  0xe5, 0x06, 0xe2, 0x00, 0xe6, 0xf4, 0x0c, 0xf5, 0xf8, 0xe5, 0x02, 0xe9, 
  0xea, 0xef, 0xe1, 0xe6, 0xef, 0x07, 0x17, 0x15, 0xf7, 0xfc, 0xf5, 0xef, 
  0x10, 0xeb, 0x16, 0x21, 0xf1, 0xe9, 0x00, 0x1d, 0xc0, 0x05, 0xef, 0xed, 
  0xdd, 0x04, 0x18, 0x08, 0x03, 0xe9, 0xf3, 0x02, 0xdc, 0xd6, 0xf7, 0xef, 
  0xf6, 0xf9, 0xcf, 0xfb, 0x0d, 0x07, 0xfc, 0xf2, 0x03, 0xc0, 0xfd, 0x15, 
  0xfd, 0x0b, 0xdb, 0xe7, 0xdf, 0xd1, 0x0e, 0x02, 0xbd, 0x09, 0x06, 0x0c, 
  0xdc, 0xf8, 0x00, 0x1a, 0x05, 0x24, 0xeb, 0x14, 0x0c, 0xa1, 0xcd, 0x00, 
  0x01, 0xe8, 0xe6, 0x0e, 0x02, 0xfb, 0x0b, 0x1b, 0x01, 0xe6, 0x0e, 0x00, 
  0xfd, 0x0c, 0xf0, 0xe0, 0xd5, 0x10, 0x16, 0x18, 0x13, 0xee, 0xec, 0xe4, 
  0x03, 0xf6, 0xfe, 0xf4, 0x16, 0x01, 0x06, 0x02, 0xea, 0xec, 0xef, 0x1c, 
  0x14, 0x0e, 0x0e, 0x0b, 0x13, 0xf8, 0x00, 0xe4, 0x00, 0x05, 0x06, 0xf6, 
  0x0c, 0xf6, 0x22, 0x07, 0xe7, 0xef, 0x10, 0x0f, 0x19, 0xe2, 0xcf, 0xe6, 
  0xfd, 0xcf, 0xe7, 0xfd, 0x03, 0x0f, 0x05, 0xf8, 0xe7, 0xf9, 0x06, 0xf4, 
  0xf5, 0xfd, 0x04, 0xf7, 0x1a, 0xef, 0xf4, 0xfd, 0xf4, 0x15, 0xf6, 0xef, 
  0xdd, 0x03, 0x15, 0x0d, 0xff, 0xe6, 0xf9, 0xe7, 0x0d, 0x31, 0xc7, 0xe3, 
  0x23, 0xec, 0xfb, 0x00, 0xff, 0xff, 0xf6, 0x0f, 0x16, 0xea, 0xfe, 0x02, 
  0xde, 0x12, 0xeb, 0x0c, 0xf7, 0x13, 0xed, 0xfa, 0xf0, 0xf7, 0xf4, 0xf2, 
  0xe5, 0x0f, 0x14, 0xfe, 0x07, 0x10, 0x25, 0xf2, 0x05, 0xd2, 0x08, 0x02, 
  0x17, 0xfb, 0xf2, 0x12, 0xf3, 0xf7, 0x03, 0x02, 0xfa, 0x0a, 0xf4, 0xfd, 
  0xf9, 0x0f, 0xfa, 0x19, 0x08, 0x1b, 0xf3, 0x08, 0x11, 0x0d, 0x13, 0x09, 
  0x10, 0xf1, 0xf0, 0x14, 0xfc, 0x1b, 0xfd, 0xfe, 0x11, 0xf5, 0x0a, 0xfd, 
  0xff, 0x08, 0x0d, 0x0e, 0x00, 0x0c, 0x03, 0xf1, 0x00, 0xf4, 0xf7, 0x0a, 
  0xe5, 0xe5, 0xf6, 0xdf, 0x11, 0xf1, 0x0f, 0x11, 0x01, 0xe3, 0xef, 0xf6, 
  0xfd, 0x0e, 0x0b, 0xe6, 0xf6, 0x07, 0x05, 0xe0, 0xf4, 0x0d, 0x02, 0xf4, 
  0xe4, 0x03, 0xc3, 0xff, 0x06, 0xf6, 0x0f, 0x17, 0xcb, 0x18, 0xfa, 0x0a, 
  0xf3, 0xee, 0xf1, 0x14, 0x18, 0x1b, 0xee, 0x16, 0x0f, 0x29, 0xf1, 0xf6, 
  0xd3, 0x08, 0x05, 0xcd, 0x00, 0xfe, 0x1c, 0xe4, 0xee, 0xf3, 0xfa, 0xf4, 
  0x14, 0xa7, 0xc7, 0xb6, 0xee, 0x1b, 0x09, 0x2b, 0x1d, 0xe5, 0x07, 0xae, 
  0xce, 0xfc, 0x01, 0x16, 0x1b, 0xed, 0x13, 0xe4, 0xda, 0x01, 0x05, 0xbf, 
  0x0f, 0x1d, 0xed, 0x01, 0xfa, 0xfd, 0xea, 0xd4, 0x04, 0xe6, 0xde, 0x25, 
  0xdd, 0xdf, 0x03, 0xd1, 0xee, 0xe6, 0xf7, 0x14, 0x09, 0xd7, 0xd2, 0xdc, 
  0x03, 0x01, 0x04, 0x15, 0xff, 0xf1, 0xe8, 0xf0, 0xf6, 0xd5, 0x04, 0xfa, 
  0xed, 0xfa, 0xf7, 0xf5, 0x04, 0x16, 0x13, 0x02, 0x2d, 0xe7, 0xfc, 0xf7, 
  0xf7, 0x19, 0x07, 0x08, 0x0d, 0x09, 0x02, 0xdd, 0x0b, 0xf7, 0x17, 0xe1, 
  0x1c, 0xfc, 0x0b, 0xde, 0xf1, 0xf5, 0xf7, 0xfe, 0x2e, 0xf0, 0xd8, 0xeb, 
  0x1f, 0x0e, 0xf0, 0x14, 0x08, 0xec, 0xe9, 0xdb, 0x04, 0x14, 0xfc, 0xf5, 
  0xe6, 0xfd, 0xe1, 0xc3, 0xdd, 0x98, 0xee, 0x1a, 0x1a, 0xc6, 0x12, 0xff, 
  0x0a, 0xf8, 0x06, 0xdb, 0xd5, 0xfc, 0xd8, 0x22, 0x09, 0xcb, 0xce, 0xe7, 
  0x0a, 0xe9, 0xe3, 0xd5, 0xeb, 0xe8, 0xdd, 0x0c, 0xd6, 0xfe, 0x08, 0xf8, 
  0xe7, 0x27, 0xce, 0xbb, 0xd3, 0xf0, 0xf6, 0x06, 0xed, 0xf7, 0xdd, 0xdc, 
  0x0d, 0x15, 0xe4, 0x1e, 0x20, 0x0f, 0xd3, 0xcc, 0xcd, 0xef, 0x0c, 0xda, 
  0xf2, 0xe7, 0xe5, 0x16, 0xf4, 0x17, 0xf3, 0xc9, 0x05, 0xfe, 0xfc, 0xe8, 
  0xfe, 0xed, 0xe2, 0xee, 0xf1, 0xb8, 0x0c, 0x02, 0xed, 0x0e, 0xe6, 0xe9, 
  0x07, 0x00, 0x09, 0xdb, 0x1c, 0x1d, 0x05, 0x13, 0xd8, 0x08, 0x0a, 0x04, 
  0x00, 0x02, 0xe8, 0xe2, 0xc9, 0x10, 0x13, 0x0b, 0xf0, 0x01, 0xe2, 0xf8, 
  0xff, 0x18, 0x06, 0xeb, 0xf8, 0x04, 0x0c, 0xd6, 0x06, 0xf8, 0xff, 0xfc, 
  0xfe, 0x20, 0x26, 0x1a, 0xfa, 0xfe, 0x28, 0xfb, 0x33, 0xf8, 0x17, 0xf3, 
  0x03, 0xe7, 0x1c, 0xf0, 0x2d, 0xff, 0xf1, 0x09, 0x14, 0xf5, 0x02, 0xee, 
  0x14, 0xf8, 0xed, 0x03, 0x02, 0xc8, 0x01, 0xea, 0x09, 0x0a, 0xff, 0x05, 
  0x0d, 0x19, 0x15, 0x10, 0x05, 0xe9, 0x23, 0x07, 0x0a, 0x0c, 0x10, 0x0f, 
  0x0e, 0x06, 0x04, 0x0a, 0x10, 0x03, 0x19, 0x04, 0x08, 0xf9, 0x06, 0xfe, 
  0x02, 0x0d, 0x17, 0xfa, 0xfc, 0xea, 0x01, 0xfd, 0xef, 0xee, 0xe1, 0xfd, 
  0xef, 0xe6, 0xe0, 0xf8, 0xef, 0x02, 0xf5, 0xed, 0x06, 0xf9, 0x02, 0xfd, 
  0xf5, 0xf9, 0x01, 0xfe, 0x03, 0xee, 0x0f, 0x01, 0xea, 0x03, 0x1c, 0xe9, 
  0x15, 0xf0, 0xe5, 0xef, 0xde, 0xe3, 0x0d, 0xfa, 0x00, 0x04, 0x08, 0x00, 
  0xe3, 0xfc, 0xf8, 0xee, 0x08, 0x05, 0xf0, 0x02, 0xd9, 0xfe, 0xfa, 0x01, 
  0xe6, 0xf3, 0xe0, 0xf9, 0x05, 0xca, 0x00, 0x02, 0x04, 0xf7, 0xd4, 0xfe, 
  0x08, 0xf5, 0xf9, 0xf6, 0x06, 0x02, 0xde, 0xf6, 0xfe, 0x0b, 0xf5, 0xf9, 
  0x03, 0x0c, 0x05, 0xf8, 0x09, 0x16, 0xf8, 0xf1, 0x08, 0x0d, 0x1b, 0xf8, 
  0x02, 0x01, 0x14, 0xfe, 0x1b, 0x01, 0xee, 0x03, 0x19, 0xf6, 0x09, 0x0f, 
  0xe9, 0xed, 0xf9, 0x15, 0x0f, 0x01, 0x05, 0xf3, 0x14, 0xfd, 0x00, 0x09, 
  0x14, 0x04, 0xec, 0xea, 0x09, 0x00, 0x11, 0xe9, 0xe8, 0x02, 0x04, 0x03, 
  0xf6, 0xfc, 0x0f, 0x0c, 0x09, 0x08, 0xee, 0xee, 0x04, 0xf7, 0xe8, 0x02, 
  0x0d, 0xf2, 0xed, 0x0f, 0xf9, 0xfb, 0xee, 0xee, 0x03, 0xe9, 0x04, 0x07, 
  0xf1, 0x0c, 0xf7, 0xfd, 0xef, 0x0e, 0x0a, 0xf1, 0xce, 0x0d, 0xf3, 0xf8, 
  0x0f, 0x07, 0xf3, 0xf0, 0xf8, 0x07, 0x10, 0x03, 0x12, 0xf7, 0xe6, 0xf0, 
  0x0f, 0xf1, 0x22, 0x14, 0xe7, 0xe7, 0x0d, 0xfa, 0xba, 0x0c, 0x0c, 0x19, 
  0xd5, 0xf0, 0x04, 0xe6, 0x09, 0xf8, 0xfa, 0xf7, 0xcc, 0xe8, 0xee, 0xea, 
  0xdc, 0x08, 0xeb, 0xe1, 0xcb, 0xcb, 0xd8, 0xcf, 0x0d, 0x01, 0xbc, 0xd3, 
  0xec, 0xed, 0xfe, 0xf9, 0xe8, 0xfe, 0xcb, 0x2d, 0xfc, 0xca, 0xcd, 0xf3, 
  0x01, 0xff, 0xee, 0xe2, 0xf9, 0x0c, 0xf3, 0x07, 0x06, 0x16, 0x0c, 0x1a, 
  0xe1, 0xf4, 0xf0, 0xf1, 0x03, 0x42, 0xfe, 0x19, 0x00, 0xd7, 0x14, 0xfd, 
  0x07, 0x15, 0x00, 0xf7, 0x0f, 0x16, 0x08, 0xa6, 0x0b, 0x05, 0x18, 0xf0, 
  0x18, 0x1a, 0x10, 0xf0, 0xfa, 0x2a, 0xfc, 0xfe, 0xf9, 0xf3, 0x08, 0x09, 
  0x16, 0x05, 0x23, 0x1d, 0x02, 0xe5, 0x1f, 0x11, 0x17, 0x1f, 0x10, 0x0c, 
  0xfd, 0x06, 0x08, 0x0d, 0xf7, 0xe9, 0x01, 0x01, 0x0a, 0x07, 0xed, 0x0b, 
  0xf1, 0xe6, 0x01, 0x13, 0x22, 0x01, 0x01, 0x14, 0x07, 0xe5, 0x26, 0x09, 
  0xe9, 0x12, 0xf6, 0x19, 0x85, 0x0a, 0x10, 0x30, 0xe8, 0x13, 0xe3, 0x14, 
  0x05, 0xea, 0xf7, 0x05, 0xd5, 0x12, 0x04, 0xe4, 0xfe, 0x05, 0xfe, 0xe6, 
  0xd7, 0xfb, 0x05, 0x0a, 0xdf, 0x1f, 0x09, 0xed, 0xe1, 0xf5, 0xf3, 0xe2, 
  0x06, 0xe1, 0xf5, 0xbe, 0xbc, 0x15, 0x08, 0x17, 0x25, 0x15, 0x2f, 0xf1, 
  0x16, 0x02, 0x10, 0x18, 0xe2, 0xdf, 0x19, 0xf9, 0x00, 0x47, 0x17, 0xed, 
  0x13, 0x0a, 0x13, 0x0d, 0xe2, 0xfe, 0x18, 0xfe, 0x1d, 0xfa, 0x0c, 0xdc, 
  0xf9, 0x49, 0xdc, 0x0b, 0x08, 0x10, 0x16, 0x04, 0x0f, 0x01, 0x00, 0xf5, 
  0x07, 0xf5, 0x12, 0x0c, 0x1e, 0x2c, 0xf3, 0xf6, 0x1e, 0x04, 0xfe, 0xef, 
  0x08, 0xff, 0x11, 0x17, 0x07, 0x21, 0x0d, 0x00, 0x14, 0x07, 0xe3, 0x0f, 
  0xe8, 0x8b, 0xed, 0xfe, 0x02, 0xf1, 0xd0, 0xd4, 0xe2, 0xf8, 0xdb, 0xff, 
  0x26, 0xf3, 0xe1, 0xfc, 0x10, 0x02, 0x25, 0x10, 0xe1, 0xe9, 0xde, 0x1b, 
  0xea, 0x08, 0xf3, 0x10, 0x13, 0x10, 0x15, 0xf8, 0xb2, 0xf6, 0xe4, 0xdd, 
  0x17, 0xe2, 0xd8, 0x0b, 0xeb, 0x02, 0xe6, 0xf6, 0xfc, 0xd1, 0xfc, 0xed, 
  0x06, 0x3e, 0xf3, 0x1b, 0xf0, 0xbe, 0x04, 0x14, 0x12, 0xee, 0x0a, 0xb3, 
  0x02, 0xed, 0x0e, 0xe9, 0xfe, 0x05, 0x9f, 0xe4, 0xf1, 0xd5, 0xff, 0xf6, 
  0xf3, 0xd3, 0x23, 0xf1, 0xf1, 0xfe, 0x19, 0x07, 0x06, 0x1b, 0xea, 0xfb, 
  0xf3, 0x14, 0x05, 0x04, 0x06, 0xe8, 0xfa, 0x08, 0x06, 0xfe, 0xe7, 0xee, 
  0x09, 0x0a, 0x14, 0xfe, 0xea, 0xec, 0xe6, 0xf6, 0x00, 0xfe, 0xcc, 0xd6, 
  0x14, 0x21, 0x00, 0xf9, 0xfc, 0xf4, 0x06, 0x01, 0xd7, 0xf8, 0x0e, 0x0a, 
  0x01, 0x1f, 0xf0, 0x01, 0x15, 0xf6, 0xfe, 0xf6, 0xe5, 0x03, 0x0f, 0xf5, 
  0x0a, 0x17, 0xde, 0x0d, 0x00, 0xe1, 0xfb, 0xf4, 0x17, 0x07, 0xf6, 0xfa, 
  0x02, 0x0e, 0xfa, 0xfa, 0xea, 0xd6, 0xff, 0x0f, 0xfa, 0x19, 0xfd, 0x01, 
  0x0a, 0x26, 0x1d, 0x06, 0xe0, 0xf6, 0x31, 0xf1, 0x0d, 0xff, 0x1f, 0x2c, 
  0x12, 0x12, 0xe3, 0x11, 0x1f, 0xee, 0x16, 0xfe, 0x0c, 0xfb, 0x04, 0xfd, 
  0xdd, 0x01, 0x0f, 0x0d, 0x06, 0xfe, 0xf3, 0x38, 0x09, 0x05, 0xfa, 0x11, 
  0xfe, 0xea, 0x0c, 0xd3, 0xdd, 0x07, 0xea, 0x00, 0xf6, 0x08, 0xee, 0xef, 
  0x04, 0xee, 0x14, 0x0a, 0x12, 0x23, 0xfa, 0xf6, 0xab, 0x0f, 0x05, 0x03, 
  0xd9, 0x16, 0xf8, 0xfa, 0x27, 0xf9, 0x1e, 0x0a, 0xec, 0x0a, 0x20, 0xfa, 
  0xff, 0x0a, 0x0e, 0xfb, 0xe1, 0xf2, 0xcd, 0xfb, 0x07, 0x06, 0x0c, 0x0e, 
  0x22, 0x04, 0x1e, 0x0f, 0xe6, 0xf2, 0x24, 0x04, 0xfd, 0x20, 0x0f, 0xf0, 
  0x07, 0x01, 0xec, 0x16, 0xca, 0x0c, 0xec, 0xf8, 0x00, 0xd4, 0xe1, 0xeb, 
  0xec, 0xf9, 0xf3, 0x25, 0x01, 0x0a, 0xd3, 0x0f, 0xfc, 0xf1, 0xfe, 0x0b, 
  0x03, 0xe6, 0xe5, 0xee, 0x00, 0xdd, 0x02, 0xe9, 0xf1, 0xf9, 0x0d, 0xf4, 
  0xcd, 0xeb, 0xca, 0xf8, 0xe9, 0xff, 0xd3, 0xdd, 0xcb, 0x1a, 0xf9, 0x0d, 
  0x03, 0xda, 0xe5, 0x0c, 0x22, 0x13, 0x1d, 0x38, 0x0e, 0x0f, 0xfc, 0xfb, 
  0xb6, 0xed, 0x22, 0x0a, 0xcc, 0x35, 0x18, 0x34, 0xe9, 0xba, 0xbc, 0xa7, 
  0x02, 0x0e, 0xbe, 0x05, 0xcb, 0xd3, 0xe4, 0xda, 0xf0, 0x0a, 0xa5, 0x2b, 
  0xeb, 0xe0, 0xdc, 0x3b, 0x02, 0x1c, 0x06, 0xfa, 0xcf, 0xdb, 0x22, 0x2c, 
  0xe6, 0xe8, 0xd1, 0xf5, 0xf0, 0xf0, 0xe9, 0xf5, 0xe2, 0xe6, 0xf3, 0x01, 
  0x0f, 0x13, 0xf3, 0xeb, 0xe6, 0x02, 0x02, 0xed, 0xe9, 0xf0, 0xf7, 0xe0, 
  0xe4, 0x05, 0xe3, 0xf7, 0xd9, 0xde, 0xfa, 0xe0, 0xdb, 0xfb, 0xef, 0xfe, 
  0x0a, 0xee, 0xe5, 0x04, 0xd1, 0xe8, 0xc9, 0xfb, 0xfc, 0xf5, 0x18, 0xde, 
  0xb9, 0x13, 0xd0, 0xe4, 0xf3, 0xf7, 0xda, 0xb9, 0x02, 0x01, 0xf3, 0xce, 
  0xd7, 0xee, 0x0f, 0x21, 0xba, 0xeb, 0xde, 0xff, 0xcc, 0xe7, 0xff, 0x19, 
  0xbd, 0x04, 0xe9, 0xf7, 0xda, 0x17, 0x15, 0xe1, 0x19, 0xf0, 0xd0, 0xe6, 
  0xdb, 0xe4, 0xe5, 0xf1, 0x15, 0x00, 0x0c, 0xe7, 0xe5, 0x06, 0xe8, 0xfb, 
  0x02, 0x0b, 0xf9, 0xc7, 0xdb, 0x01, 0xe4, 0xfb, 0x07, 0x07, 0xfa, 0xe0, 
  0xb3, 0x1e, 0x0b, 0xe8, 0xf3, 0xcb, 0xd7, 0x1d, 0xfd, 0x0e, 0xfb, 0x10, 
  0x10, 0xf0, 0xdf, 0xe8, 0x0a, 0xef, 0xed, 0xf8, 0xfe, 0xf4, 0xfd, 0x1d, 
  0x03, 0xe8, 0xe2, 0xf9, 0xf5, 0x03, 0x12, 0x06, 0x03, 0x19, 0xeb, 0xde, 
  0xe0, 0x12, 0xf4, 0xfa, 0xe3, 0xec, 0x02, 0x0a, 0x03, 0xd3, 0xe9, 0xf0, 
  0xe0, 0xe9, 0xcf, 0xf6, 0xf3, 0x05, 0x18, 0xef, 0x25, 0x17, 0x26, 0x0e, 
  0x19, 0x0b, 0x00, 0x1f, 0x0d, 0x0f, 0x0d, 0x03, 0x04, 0xeb, 0x0d, 0x10, 
  0xec, 0x13, 0xf7, 0xf8, 0x1c, 0x14, 0x0c, 0xfa, 0xf9, 0xea, 0x04, 0x1a, 
  0xe3, 0xf6, 0x0e, 0xf5, 0x09, 0x0d, 0x07, 0x25, 0x12, 0x25, 0x1f, 0x20, 
  0x11, 0x0a, 0x09, 0xfa, 0x1b, 0xf1, 0x11, 0xfd, 0xfa, 0xf3, 0x32, 0xf2, 
  0x31, 0x26, 0x16, 0xfe, 0x1d, 0x17, 0x0c, 0xc4, 0x29, 0xea, 0x01, 0xf6, 
  0x04, 0x25, 0x16, 0x2b, 0xf5, 0x00, 0x2b, 0xfe, 0xf7, 0xd0, 0x31, 0x07, 
  0x0e, 0xdb, 0xda, 0x02, 0xe2, 0xe3, 0xed, 0xeb, 0x18, 0x0e, 0xf9, 0x0d, 
  0x05, 0x15, 0x0e, 0x0b, 0x20, 0xf0, 0x18, 0xec, 0x01, 0x15, 0xf8, 0x0d, 
  0x09, 0xdf, 0x23, 0xe3, 0xed, 0x15, 0xf5, 0x13, 0xeb, 0xee, 0x07, 0xfc, 
  0x03, 0x13, 0x08, 0xdb, 0xf2, 0x0d, 0x05, 0x02, 0x09, 0xf2, 0xfe, 0xe8, 
  0xf1, 0xf2, 0x0f, 0x0f, 0x2b, 0x02, 0x07, 0x21, 0x09, 0x13, 0x26, 0x15, 
  0xfb, 0x18, 0xeb, 0x07, 0xfd, 0xf3, 0x02, 0x1a, 0x0f, 0xf7, 0xf4, 0x10, 
  0x24, 0x15, 0x22, 0x0b, 0x09, 0x0f, 0xff, 0xec, 0xfd, 0xfa, 0x07, 0xf2, 
  0x03, 0x05, 0x15, 0x14, 0x11, 0x1e, 0x1a, 0x21, 0x14, 0xf3, 0xef, 0x09, 
  0x0f, 0x0c, 0x1a, 0x15, 0x05, 0x05, 0x0a, 0x0d, 0x06, 0x21, 0x00, 0x15, 
  0x0c, 0x13, 0x1b, 0x13, 0x1a, 0xfe, 0x16, 0x1e, 0x07, 0x0b, 0xfa, 0x0f, 
  0x23, 0x06, 0xf8, 0xf6, 0xf7, 0xfd, 0x45, 0x0d, 0x09, 0x0b, 0x18, 0xfb, 
  0xed, 0x07, 0x01, 0xe6, 0x09, 0x2f, 0xeb, 0x0e, 0x10, 0x21, 0xfd, 0x21, 
  0x12, 0x05, 0x00, 0x07, 0xfa, 0xf6, 0xdf, 0xed, 0xf2, 0xea, 0x0e, 0x00, 
  0xf3, 0x09, 0xf0, 0x0b, 0xff, 0x05, 0x10, 0x04, 0xef, 0x03, 0xf8, 0xeb, 
  0x03, 0xfc, 0xf1, 0xfd, 0xe4, 0x00, 0xf2, 0x0b, 0xea, 0xef, 0x07, 0x02, 
  0x0c, 0xeb, 0x26, 0x18, 0xe6, 0x13, 0x20, 0x13, 0x0f, 0x0c, 0x12, 0xab, 
  0xd6, 0x01, 0x20, 0xe7, 0xe7, 0xf4, 0xd2, 0xdf, 0x07, 0x0d, 0x03, 0x06, 
  0x37, 0xf6, 0xaa, 0xe1, 0xf2, 0xda, 0x0b, 0xf9, 0x1e, 0x14, 0x24, 0x03, 
  0xba, 0xfe, 0x15, 0xff, 0xec, 0xed, 0x0f, 0x32, 0xc4, 0xf4, 0xee, 0x14, 
  0xdf, 0xe9, 0xf3, 0xf8, 0xf0, 0xf7, 0x00, 0xdd, 0x20, 0x0d, 0x3c, 0x0c, 
  0x12, 0x98, 0xf0, 0xfb, 0x19, 0x04, 0x24, 0xf7, 0xe3, 0x03, 0x1e, 0x19, 
  0x0e, 0x02, 0x17, 0xfd, 0xed, 0x2c, 0xeb, 0xeb, 0xec, 0xe1, 0x18, 0xf8, 
  0x22, 0xdf, 0x02, 0x29, 0x18, 0x06, 0xfd, 0xf9, 0xf6, 0x22, 0x24, 0xe0, 
  0xe0, 0xfb, 0x10, 0xf0, 0xed, 0x0f, 0xdf, 0x0d, 0x01, 0xe2, 0x03, 0xe9, 
  0x0f, 0x06, 0x26, 0x0c, 0xf6, 0x05, 0xf0, 0x1a, 0xf8, 0xe8, 0xea, 0x08, 
  0x0c, 0x09, 0xfe, 0xe9, 0x09, 0x11, 0xf9, 0xeb, 0xc9, 0x07, 0xf5, 0xf8, 
  0x1d, 0xd9, 0xf3, 0xe0, 0xf3, 0xf8, 0xd3, 0x05, 0xe5, 0xfc, 0x13, 0xf7, 
  0x0b, 0xff, 0xdf, 0x04, 0x0c, 0x04, 0x04, 0xf9, 0x09, 0xf0, 0x0a, 0xee, 
  0xab, 0xf5, 0x07, 0xff, 0x13, 0x21, 0xe2, 0x00, 0xf1, 0xfa, 0x20, 0xed, 
  0xf8, 0x13, 0xe1, 0x10, 0x06, 0x30, 0xda, 0xec, 0x41, 0xb9, 0xf4, 0xf2, 
  0xe6, 0x06, 0x08, 0x05, 0x04, 0x00, 0x0e, 0xfe, 0xed, 0xff, 0x04, 0xea, 
  0x1e, 0xf5, 0xe5, 0x1b, 0x12, 0xf5, 0xff, 0x05, 0x12, 0xf9, 0xe8, 0x0d, 
  0xf4, 0xe4, 0xfa, 0xea, 0xf6, 0x03, 0x13, 0xe5, 0xec, 0xe5, 0xe6, 0xff, 
  0x19, 0xea, 0xff, 0xf2, 0xe5, 0xc1, 0x28, 0xfd, 0xf7, 0xef, 0x0a, 0x01, 
  0xfb, 0xf8, 0xdf, 0xf5, 0xf3, 0xe0, 0xf4, 0xf1, 0x11, 0x02, 0x29, 0x12, 
  0xfd, 0x1c, 0x00, 0x10, 0x04, 0xe6, 0xfe, 0x0d, 0xe9, 0x09, 0xe9, 0xed, 
  0xe8, 0x13, 0x20, 0x08, 0xed, 0xed, 0xec, 0xe5, 0x0d, 0xee, 0xe2, 0xc9, 
  0xe6, 0xf1, 0xdd, 0xd5, 0x0c, 0xf2, 0xf8, 0xf0, 0xf9, 0x15, 0xeb, 0x0e, 
  0xd5, 0xeb, 0xf9, 0xf0, 0xc7, 0xf8, 0xf2, 0xfb, 0xfc, 0x0e, 0x00, 0x15, 
  0xb8, 0xca, 0xf4, 0xce, 0xed, 0x04, 0x02, 0xe8, 0xfd, 0x2b, 0xb6, 0xda, 
  0xeb, 0xf3, 0xf9, 0x16, 0xd6, 0xf9, 0xf1, 0xf4, 0xf9, 0x19, 0xcb, 0xf2, 
  0xf8, 0xff, 0xfe, 0x3d, 0x11, 0x03, 0x13, 0x18, 0xee, 0xfe, 0xe2, 0xe1, 
  0x0d, 0xe9, 0x01, 0x00, 0x07, 0xb7, 0xe5, 0x0e, 0x08, 0xef, 0xdb, 0x13, 
  0xfa, 0x02, 0xf5, 0xf7, 0xe5, 0x00, 0xcb, 0x0a, 0xf1, 0xda, 0x11, 0x0d, 
  0xf2, 0xf1, 0xc6, 0xf3, 0xde, 0xd9, 0xfa, 0xef, 0xfc, 0xdf, 0xe5, 0x02, 
  0xf4, 0x0c, 0xa8, 0xd3, 0x03, 0xea, 0xef, 0xe3, 0xf0, 0xdc, 0x01, 0x08, 
  0x00, 0xd0, 0x03, 0xf6, 0xf6, 0x0b, 0xde, 0xf8, 0xe8, 0x09, 0xe3, 0xda, 
  0xcb, 0xfb, 0xfe, 0xf7, 0xe7, 0xf5, 0xf0, 0xe7, 0xf8, 0xf8, 0x0a, 0xfd, 
  0x0b, 0xeb, 0x04, 0xec, 0xdf, 0x08, 0xec, 0x0c, 0xf2, 0xd2, 0x00, 0xef, 
  0xfa, 0x06, 0x00, 0x01, 0xf6, 0xf4, 0xe5, 0xf2, 0xef, 0xfa, 0xfc, 0xe3, 
  0xef, 0xf1, 0xff, 0xd6, 0xf8, 0x0d, 0xc9, 0xfa, 0xfd, 0xf1, 0xfd, 0xfa, 
  0xf9, 0xf3, 0xf7, 0xf6, 0x04, 0xd7, 0xf3, 0xe8, 0xf9, 0x05, 0xeb, 0xe7, 
  0xf0, 0xfe, 0xed, 0xfb, 0x05, 0xf5, 0xec, 0xf4, 0xef, 0xf1, 0xd6, 0xe5, 
  0xea, 0xfa, 0xf9, 0xee, 0xee, 0xd5, 0xff, 0xfc, 0x09, 0x05, 0xf5, 0xec, 
  0xce, 0xd8, 0xfb, 0xe7, 0xfe, 0xf5, 0xde, 0x0d, 0x09, 0xff, 0xfb, 0x08, 
  0xcb, 0xff, 0xf6, 0x0b, 0xe8, 0x05, 0xe8, 0x11, 0x0c, 0x00, 0x01, 0xf4, 
  0x10, 0x04, 0x02, 0xf5, 0x0a, 0xfa, 0x0b, 0x0c, 0x01, 0xec, 0x0f, 0x12, 
  0xe9, 0xeb, 0xee, 0x13, 0xfb, 0xf0, 0xf2, 0x05, 0x1a, 0xff, 0xff, 0xff, 
  0x04, 0x00, 0x00, 0x00, 0x28, 0x00, 0x00, 0x00, 0x53, 0x00, 0x00, 0x00, 
  0x27, 0x00, 0x00, 0x00, 0xd3, 0xff, 0xff, 0xff, 0x81, 0xff, 0xff, 0xff, 
  0x82, 0xff, 0xff, 0xff, 0x1e, 0x00, 0x00, 0x00, 0x04, 0x00, 0x00, 0x00, 
  0x5c, 0x00, 0x00, 0x00, 0xc3, 0xff, 0xff, 0xff, 0x05, 0x00, 0x00, 0x00, 
  0x4e, 0xff, 0xff, 0xff, 0x04, 0x00, 0x00, 0x00, 0x08, 0x00, 0x00, 0x00, 
  0xff, 0xff, 0xff, 0xff, 0x00, 0x02, 0x00, 0x00, 0xdc, 0xf0, 0xff, 0xff, 
  0xe0, 0xf0, 0xff, 0xff, 0x0f, 0x00, 0x00, 0x00, 0x4d, 0x4c, 0x49, 0x52, 
  0x20, 0x43, 0x6f, 0x6e, 0x76, 0x65, 0x72, 0x74, 0x65, 0x64, 0x2e, 0x00, 
  0x01, 0x00, 0x00, 0x00, 0x14, 0x00, 0x00, 0x00, 0x00, 0x00, 0x0e, 0x00, 
  0x18, 0x00, 0x14, 0x00, 0x10, 0x00, 0x0c, 0x00, 0x08, 0x00, 0x04, 0x00, 
  0x0e, 0x00, 0x00, 0x00, 0x14, 0x00, 0x00, 0x00, 0x1c, 0x00, 0x00, 0x00, 
  0xc0, 0x01, 0x00, 0x00, 0xc4, 0x01, 0x00, 0x00, 0xc8, 0x01, 0x00, 0x00, 
  0x04, 0x00, 0x00, 0x00, 0x6d, 0x61, 0x69, 0x6e, 0x00, 0x00, 0x00, 0x00, 
  0x06, 0x00, 0x00, 0x00, 0x5c, 0x01, 0x00, 0x00, 0x0c, 0x01, 0x00, 0x00, 
  0xcc, 0x00, 0x00, 0x00, 0xa4, 0x00, 0x00, 0x00, 0x60, 0x00, 0x00, 0x00, 
  0x14, 0x00, 0x00, 0x00, 0x00, 0x00, 0x0e, 0x00, 0x1a, 0x00, 0x14, 0x00, 
  0x10, 0x00, 0x0c, 0x00, 0x0b, 0x00, 0x04, 0x00, 0x0e, 0x00, 0x00, 0x00, 
  0x1c, 0x00, 0x00, 0x00, 0x00, 0x00, 0x00, 0x09, 0x1c, 0x00, 0x00, 0x00, 
  0x20, 0x00, 0x00, 0x00, 0x03, 0x00, 0x00, 0x00, 0x00, 0x00, 0x06, 0x00, 
  0x08, 0x00, 0x04, 0x00, 0x06, 0x00, 0x00, 0x00, 0x00, 0x00, 0x80, 0x3f, 
  0x01, 0x00, 0x00, 0x00, 0x0f, 0x00, 0x00, 0x00, 0x01, 0x00, 0x00, 0x00, 
  0x0e, 0x00, 0x00, 0x00, 0x00, 0x00, 0x0e, 0x00, 0x18, 0x00, 0x14, 0x00, 
  0x10, 0x00, 0x0c, 0x00, 0x0b, 0x00, 0x04, 0x00, 0x0e, 0x00, 0x00, 0x00, 
  0x14, 0x00, 0x00, 0x00, 0x00, 0x00, 0x00, 0x08, 0x10, 0x00, 0x00, 0x00, 
  0x14, 0x00, 0x00, 0x00, 0x02, 0x00, 0x00, 0x00, 0xc0, 0xf1, 0xff, 0xff, 
  0x01, 0x00, 0x00, 0x00, 0x0e, 0x00, 0x00, 0x00, 0x03, 0x00, 0x00, 0x00, 
  0x0d, 0x00, 0x00, 0x00, 0x03, 0x00, 0x00, 0x00, 0x02, 0x00, 0x00, 0x00, 
  0x00, 0x00, 0x0a, 0x00, 0x10, 0x00, 0x0c, 0x00, 0x08, 0x00, 0x04, 0x00, 
  0x0a, 0x00, 0x00, 0x00, 0x0c, 0x00, 0x00, 0x00, 0x10, 0x00, 0x00, 0x00, 
  0x01, 0x00, 0x00, 0x00, 0x01, 0x00, 0x00, 0x00, 0x0d, 0x00, 0x00, 0x00, 
  0x02, 0x00, 0x00, 0x00, 0x0c, 0x00, 0x00, 0x00, 0x01, 0x00, 0x00, 0x00, 
  0x86, 0xff, 0xff, 0xff, 0x10, 0x00, 0x00, 0x00, 0x00, 0x00, 0x00, 0x01, 
  0x18, 0x00, 0x00, 0x00, 0x1c, 0x00, 0x00, 0x00, 0x78, 0xff, 0xff, 0xff, 
  0x00, 0x00, 0x00, 0x01, 0x02, 0x00, 0x00, 0x00, 0x02, 0x00, 0x00, 0x00, 
  0x01, 0x00, 0x00, 0x00, 0x0c, 0x00, 0x00, 0x00, 0x03, 0x00, 0x00, 0x00, 
  0x0b, 0x00, 0x00, 0x00, 0x05, 0x00, 0x00, 0x00, 0x04, 0x00, 0x00, 0x00, 
  0xc2, 0xff, 0xff, 0xff, 0x10, 0x00, 0x00, 0x00, 0x00, 0x00, 0x00, 0x01, 
  0x18, 0x00, 0x00, 0x00, 0x1c, 0x00, 0x00, 0x00, 0xb4, 0xff, 0xff, 0xff, 
  0x00, 0x00, 0x00, 0x01, 0x02, 0x00, 0x00, 0x00, 0x02, 0x00, 0x00, 0x00, 
  0x01, 0x00, 0x00, 0x00, 0x0b, 0x00, 0x00, 0x00, 0x03, 0x00, 0x00, 0x00, 
  0x0a, 0x00, 0x00, 0x00, 0x07, 0x00, 0x00, 0x00, 0x06, 0x00, 0x00, 0x00, 
  0x00, 0x00, 0x0e, 0x00, 0x14, 0x00, 0x00, 0x00, 0x10, 0x00, 0x0c, 0x00, 
  0x0b, 0x00, 0x04, 0x00, 0x0e, 0x00, 0x00, 0x00, 0x1c, 0x00, 0x00, 0x00, 
  0x00, 0x00, 0x00, 0x01, 0x24, 0x00, 0x00, 0x00, 0x28, 0x00, 0x00, 0x00, 
  0x0c, 0x00, 0x10, 0x00, 0x00, 0x00, 0x0c, 0x00, 0x08, 0x00, 0x07, 0x00, 
  0x0c, 0x00, 0x00, 0x00, 0x00, 0x00, 0x00, 0x01, 0x02, 0x00, 0x00, 0x00, 
  0x02, 0x00, 0x00, 0x00, 0x01, 0x00, 0x00, 0x00, 0x0a, 0x00, 0x00, 0x00, 
  0x03, 0x00, 0x00, 0x00, 0x00, 0x00, 0x00, 0x00, 0x09, 0x00, 0x00, 0x00, 
  0x08, 0x00, 0x00, 0x00, 0x01, 0x00, 0x00, 0x00, 0x0f, 0x00, 0x00, 0x00, 
  0x01, 0x00, 0x00, 0x00, 0x00, 0x00, 0x00, 0x00, 0x10, 0x00, 0x00, 0x00, 
  0x54, 0x0d, 0x00, 0x00, 0xf0, 0x0c, 0x00, 0x00, 0x70, 0x0c, 0x00, 0x00, 
  0x04, 0x0c, 0x00, 0x00, 0x10, 0x0a, 0x00, 0x00, 0x24, 0x08, 0x00, 0x00, 
  0xf0, 0x06, 0x00, 0x00, 0xc4, 0x05, 0x00, 0x00, 0xf0, 0x04, 0x00, 0x00, 
  0xcc, 0x03, 0x00, 0x00, 0xf8, 0x02, 0x00, 0x00, 0x24, 0x02, 0x00, 0x00, 
  0x50, 0x01, 0x00, 0x00, 0xe4, 0x00, 0x00, 0x00, 0x60, 0x00, 0x00, 0x00, 
  0x04, 0x00, 0x00, 0x00, 0x02, 0xf3, 0xff, 0xff, 0x00, 0x00, 0x00, 0x01, 
  0x14, 0x00, 0x00, 0x00, 0x30, 0x00, 0x00, 0x00, 0x10, 0x00, 0x00, 0x00, 
  0x00, 0x00, 0x00, 0x09, 0x34, 0x00, 0x00, 0x00, 0xec, 0xf2, 0xff, 0xff, 
  0x08, 0x00, 0x00, 0x00, 0x10, 0x00, 0x00, 0x00, 0x01, 0x00, 0x00, 0x00, 
  0x80, 0xff, 0xff, 0xff, 0xff, 0xff, 0xff, 0xff, 0x01, 0x00, 0x00, 0x00, 
  0x00, 0x00, 0x80, 0x3b, 0x08, 0x00, 0x00, 0x00, 0x49, 0x64, 0x65, 0x6e, 
  0x74, 0x69, 0x74, 0x79, 0x00, 0x00, 0x00, 0x00, 0x02, 0x00, 0x00, 0x00, 
  0x01, 0x00, 0x00, 0x00, 0x0a, 0x00, 0x00, 0x00, 0x5a, 0xf3, 0xff, 0xff, 
  0x00, 0x00, 0x00, 0x01, 0x14, 0x00, 0x00, 0x00, 0x34, 0x00, 0x00, 0x00, 
  0x0f, 0x00, 0x00, 0x00, 0x00, 0x00, 0x00, 0x09, 0x5c, 0x00, 0x00, 0x00, 
  0x44, 0xf3, 0xff, 0xff, 0x08, 0x00, 0x00, 0x00, 0x14, 0x00, 0x00, 0x00, 
  0x01, 0x00, 0x00, 0x00, 0x19, 0x00, 0x00, 0x00, 0x00, 0x00, 0x00, 0x00, 
  0x00, 0x00, 0x00, 0x00, 0x01, 0x00, 0x00, 0x00, 0x5f, 0xf7, 0x02, 0x3f, 
  0x2e, 0x00, 0x00, 0x00, 0x6d, 0x6f, 0x64, 0x65, 0x6c, 0x5f, 0x33, 0x2f, 
  0x64, 0x65, 0x6e, 0x73, 0x65, 0x5f, 0x33, 0x2f, 0x4d, 0x61, 0x74, 0x4d, 
  0x75, 0x6c, 0x3b, 0x6d, 0x6f, 0x64, 0x65, 0x6c, 0x5f, 0x33, 0x2f, 0x64, 
  0x65, 0x6e, 0x73, 0x65, 0x5f, 0x33, 0x2f, 0x42, 0x69, 0x61, 0x73, 0x41, 
  0x64, 0x64, 0x00, 0x00, 0x02, 0x00, 0x00, 0x00, 0x01, 0x00, 0x00, 0x00, 
  0x0a, 0x00, 0x00, 0x00, 0xda, 0xf3, 0xff, 0xff, 0x00, 0x00, 0x00, 0x01, 
  0x14, 0x00, 0x00, 0x00, 0x30, 0x00, 0x00, 0x00, 0x0e, 0x00, 0x00, 0x00, 
  0x00, 0x00, 0x00, 0x09, 0x44, 0x00, 0x00, 0x00, 0xc4, 0xf3, 0xff, 0xff, 
  0x08, 0x00, 0x00, 0x00, 0x10, 0x00, 0x00, 0x00, 0x01, 0x00, 0x00, 0x00, 
  0x80, 0xff, 0xff, 0xff, 0xff, 0xff, 0xff, 0xff, 0x01, 0x00, 0x00, 0x00, 
  0x4d, 0x81, 0xfe, 0x3d, 0x19, 0x00, 0x00, 0x00, 0x6d, 0x6f, 0x64, 0x65, 
  0x6c, 0x5f, 0x33, 0x2f, 0x66, 0x6c, 0x61, 0x74, 0x74, 0x65, 0x6e, 0x5f, 
  0x33, 0x2f, 0x52, 0x65, 0x73, 0x68, 0x61, 0x70, 0x65, 0x00, 0x00, 0x00, 
  0x02, 0x00, 0x00, 0x00, 0x01, 0x00, 0x00, 0x00, 0x00, 0x02, 0x00, 0x00, 
  0x42, 0xf4, 0xff, 0xff, 0x00, 0x00, 0x00, 0x01, 0x14, 0x00, 0x00, 0x00, 
  0x30, 0x00, 0x00, 0x00, 0x0d, 0x00, 0x00, 0x00, 0x00, 0x00, 0x00, 0x09, 
  0xa4, 0x00, 0x00, 0x00, 0x2c, 0xf4, 0xff, 0xff, 0x08, 0x00, 0x00, 0x00, 
  0x10, 0x00, 0x00, 0x00, 0x01, 0x00, 0x00, 0x00, 0x80, 0xff, 0xff, 0xff, 
  0xff, 0xff, 0xff, 0xff, 0x01, 0x00, 0x00, 0x00, 0x4d, 0x81, 0xfe, 0x3d, 
  0x7b, 0x00, 0x00, 0x00, 0x6d, 0x6f, 0x64, 0x65, 0x6c, 0x5f, 0x33, 0x2f, 
  0x63, 0x6f, 0x6e, 0x76, 0x32, 0x64, 0x5f, 0x31, 0x31, 0x2f, 0x52, 0x65, 
  0x6c, 0x75, 0x3b, 0x6d, 0x6f, 0x64, 0x65, 0x6c, 0x5f, 0x33, 0x2f, 0x63, 
  0x6f, 0x6e, 0x76, 0x32, 0x64, 0x5f, 0x31, 0x31, 0x2f, 0x42, 0x69, 0x61, 
  0x73, 0x41, 0x64, 0x64, 0x3b, 0x6d, 0x6f, 0x64, 0x65, 0x6c, 0x5f, 0x33, 
  0x2f, 0x63, 0x6f, 0x6e, 0x76, 0x32, 0x64, 0x5f, 0x31, 0x31, 0x2f, 0x43, 
  0x6f, 0x6e, 0x76, 0x32, 0x44, 0x3b, 0x6d, 0x6f, 0x64, 0x65, 0x6c, 0x5f, 
  0x33, 0x2f, 0x63, 0x6f, 0x6e, 0x76, 0x32, 0x64, 0x5f, 0x31, 0x31, 0x2f, 
  0x42, 0x69, 0x61, 0x73, 0x41, 0x64, 0x64, 0x2f, 0x52, 0x65, 0x61, 0x64, 
  0x56, 0x61, 0x72, 0x69, 0x61, 0x62, 0x6c, 0x65, 0x4f, 0x70, 0x2f, 0x72, 
  0x65, 0x73, 0x6f, 0x75, 0x72, 0x63, 0x65, 0x00, 0x04, 0x00, 0x00, 0x00, 
  0x01, 0x00, 0x00, 0x00, 0x04, 0x00, 0x00, 0x00, 0x04, 0x00, 0x00, 0x00, 
  0x20, 0x00, 0x00, 0x00, 0x12, 0xf5, 0xff, 0xff, 0x00, 0x00, 0x00, 0x01, 
  0x14, 0x00, 0x00, 0x00, 0x30, 0x00, 0x00, 0x00, 0x0c, 0x00, 0x00, 0x00, 
  0x00, 0x00, 0x00, 0x09, 0xa4, 0x00, 0x00, 0x00, 0xfc, 0xf4, 0xff, 0xff, 
  0x08, 0x00, 0x00, 0x00, 0x10, 0x00, 0x00, 0x00, 0x01, 0x00, 0x00, 0x00, 
  0x80, 0xff, 0xff, 0xff, 0xff, 0xff, 0xff, 0xff, 0x01, 0x00, 0x00, 0x00, 
  0x9f, 0x6a, 0x33, 0x3d, 0x7b, 0x00, 0x00, 0x00, 0x6d, 0x6f, 0x64, 0x65, 
  0x6c, 0x5f, 0x33, 0x2f, 0x63, 0x6f, 0x6e, 0x76, 0x32, 0x64, 0x5f, 0x31, 
  0x30, 0x2f, 0x52, 0x65, 0x6c, 0x75, 0x3b, 0x6d, 0x6f, 0x64, 0x65, 0x6c, 
  0x5f, 0x33, 0x2f, 0x63, 0x6f, 0x6e, 0x76, 0x32, 0x64, 0x5f, 0x31, 0x30, 
  0x2f, 0x42, 0x69, 0x61, 0x73, 0x41, 0x64, 0x64, 0x3b, 0x6d, 0x6f, 0x64, 
  0x65, 0x6c, 0x5f, 0x33, 0x2f, 0x63, 0x6f, 0x6e, 0x76, 0x32, 0x64, 0x5f, 
  0x31, 0x30, 0x2f, 0x43, 0x6f, 0x6e, 0x76, 0x32, 0x44, 0x3b, 0x6d, 0x6f, 
  0x64, 0x65, 0x6c, 0x5f, 0x33, 0x2f, 0x63, 0x6f, 0x6e, 0x76, 0x32, 0x64, 
  0x5f, 0x31, 0x30, 0x2f, 0x42, 0x69, 0x61, 0x73, 0x41, 0x64, 0x64, 0x2f, 
  0x52, 0x65, 0x61, 0x64, 0x56, 0x61, 0x72, 0x69, 0x61, 0x62, 0x6c, 0x65, 
  0x4f, 0x70, 0x2f, 0x72, 0x65, 0x73, 0x6f, 0x75, 0x72, 0x63, 0x65, 0x00, 
  0x04, 0x00, 0x00, 0x00, 0x01, 0x00, 0x00, 0x00, 0x08, 0x00, 0x00, 0x00, 
  0x08, 0x00, 0x00, 0x00, 0x10, 0x00, 0x00, 0x00, 0xe2, 0xf5, 0xff, 0xff, 
  0x00, 0x00, 0x00, 0x01, 0x14, 0x00, 0x00, 0x00, 0x30, 0x00, 0x00, 0x00, 
  0x0b, 0x00, 0x00, 0x00, 0x00, 0x00, 0x00, 0x09, 0xa4, 0x00, 0x00, 0x00, 
  0xcc, 0xf5, 0xff, 0xff, 0x08, 0x00, 0x00, 0x00, 0x10, 0x00, 0x00, 0x00, 
  0x01, 0x00, 0x00, 0x00, 0x80, 0xff, 0xff, 0xff, 0xff, 0xff, 0xff, 0xff, 
  0x01, 0x00, 0x00, 0x00, 0xb3, 0xc9, 0x81, 0x3c, 0x78, 0x00, 0x00, 0x00, 
  0x6d, 0x6f, 0x64, 0x65, 0x6c, 0x5f, 0x33, 0x2f, 0x63, 0x6f, 0x6e, 0x76, 
  0x32, 0x64, 0x5f, 0x39, 0x2f, 0x52, 0x65, 0x6c, 0x75, 0x3b, 0x6d, 0x6f, 
  0x64, 0x65, 0x6c, 0x5f, 0x33, 0x2f, 0x63, 0x6f, 0x6e, 0x76, 0x32, 0x64, 
  0x5f, 0x39, 0x2f, 0x42, 0x69, 0x61, 0x73, 0x41, 0x64, 0x64, 0x3b, 0x6d, 
  0x6f, 0x64, 0x65, 0x6c, 0x5f, 0x33, 0x2f, 0x63, 0x6f, 0x6e, 0x76, 0x32, 
  0x64, 0x5f, 0x39, 0x2f, 0x43, 0x6f, 0x6e, 0x76, 0x32, 0x44, 0x3b, 0x6d, 
  0x6f, 0x64, 0x65, 0x6c, 0x5f, 0x33, 0x2f, 0x63, 0x6f, 0x6e, 0x76, 0x32, 
  0x64, 0x5f, 0x39, 0x2f, 0x42, 0x69, 0x61, 0x73, 0x41, 0x64, 0x64, 0x2f, 
  0x52, 0x65, 0x61, 0x64, 0x56, 0x61, 0x72, 0x69, 0x61, 0x62, 0x6c, 0x65, 
  0x4f, 0x70, 0x2f, 0x72, 0x65, 0x73, 0x6f, 0x75, 0x72, 0x63, 0x65, 0x31, 
  0x00, 0x00, 0x00, 0x00, 0x04, 0x00, 0x00, 0x00, 0x01, 0x00, 0x00, 0x00, 
  0x10, 0x00, 0x00, 0x00, 0x10, 0x00, 0x00, 0x00, 0x08, 0x00, 0x00, 0x00, 
  0xb2, 0xf6, 0xff, 0xff, 0x00, 0x00, 0x00, 0x01, 0x14, 0x00, 0x00, 0x00, 
  0x84, 0x00, 0x00, 0x00, 0x0a, 0x00, 0x00, 0x00, 0x00, 0x00, 0x00, 0x09, 
  0xf4, 0x00, 0x00, 0x00, 0x9c, 0xf6, 0xff, 0xff, 0x08, 0x00, 0x00, 0x00, 
  0x48, 0x00, 0x00, 0x00, 0x08, 0x00, 0x00, 0x00, 0x00, 0x00, 0x00, 0x00, 
  0x00, 0x00, 0x00, 0x00, 0x00, 0x00, 0x00, 0x00, 0x00, 0x00, 0x00, 0x00, 
  0x00, 0x00, 0x00, 0x00, 0x00, 0x00, 0x00, 0x00, 0x00, 0x00, 0x00, 0x00, 
  0x00, 0x00, 0x00, 0x00, 0x00, 0x00, 0x00, 0x00, 0x00, 0x00, 0x00, 0x00, 
  0x00, 0x00, 0x00, 0x00, 0x00, 0x00, 0x00, 0x00, 0x00, 0x00, 0x00, 0x00, 
  0x00, 0x00, 0x00, 0x00, 0x00, 0x00, 0x00, 0x00, 0x00, 0x00, 0x00, 0x00, 
  0x08, 0x00, 0x00, 0x00, 0x91, 0x9b, 0x93, 0x37, 0x63, 0xb6, 0x8b, 0x37, 
  0xa8, 0x9a, 0xba, 0x37, 0x3d, 0xe8, 0xea, 0x37, 0xc5, 0xe4, 0x81, 0x37, 
  0x2b, 0xde, 0x01, 0x38, 0x5b, 0xf8, 0xd7, 0x37, 0xcb, 0xcd, 0x78, 0x37, 
  0x77, 0x00, 0x00, 0x00, 0x6d, 0x6f, 0x64, 0x65, 0x6c, 0x5f, 0x33, 0x2f, 
  0x63, 0x6f, 0x6e, 0x76, 0x32, 0x64, 0x5f, 0x39, 0x2f, 0x52, 0x65, 0x6c, 
  0x75, 0x3b, 0x6d, 0x6f, 0x64, 0x65, 0x6c, 0x5f, 0x33, 0x2f, 0x63, 0x6f, 
  0x6e, 0x76, 0x32, 0x64, 0x5f, 0x39, 0x2f, 0x42, 0x69, 0x61, 0x73, 0x41, 
  0x64, 0x64, 0x3b, 0x6d, 0x6f, 0x64, 0x65, 0x6c, 0x5f, 0x33, 0x2f, 0x63, 
  0x6f, 0x6e, 0x76, 0x32, 0x64, 0x5f, 0x39, 0x2f, 0x43, 0x6f, 0x6e, 0x76, 
  0x32, 0x44, 0x3b, 0x6d, 0x6f, 0x64, 0x65, 0x6c, 0x5f, 0x33, 0x2f, 0x63, 
  0x6f, 0x6e, 0x76, 0x32, 0x64, 0x5f, 0x39, 0x2f, 0x42, 0x69, 0x61, 0x73, 
  0x41, 0x64, 0x64, 0x2f, 0x52, 0x65, 0x61, 0x64, 0x56, 0x61, 0x72, 0x69, 
  0x61, 0x62, 0x6c, 0x65, 0x4f, 0x70, 0x2f, 0x72, 0x65, 0x73, 0x6f, 0x75, 
  0x72, 0x63, 0x65, 0x00, 0x04, 0x00, 0x00, 0x00, 0x08, 0x00, 0x00, 0x00, 
  0x03, 0x00, 0x00, 0x00, 0x03, 0x00, 0x00, 0x00, 0x03, 0x00, 0x00, 0x00, 
  0xd2, 0xf7, 0xff, 0xff, 0x00, 0x00, 0x00, 0x01, 0x14, 0x00, 0x00, 0x00, 
  0x84, 0x00, 0x00, 0x00, 0x09, 0x00, 0x00, 0x00, 0x00, 0x00, 0x00, 0x02, 
  0xb0, 0x00, 0x00, 0x00, 0xbc, 0xf7, 0xff, 0xff, 0x08, 0x00, 0x00, 0x00, 
  0x48, 0x00, 0x00, 0x00, 0x08, 0x00, 0x00, 0x00, 0x00, 0x00, 0x00, 0x00, 
  0x00, 0x00, 0x00, 0x00, 0x00, 0x00, 0x00, 0x00, 0x00, 0x00, 0x00, 0x00, 
  0x00, 0x00, 0x00, 0x00, 0x00, 0x00, 0x00, 0x00, 0x00, 0x00, 0x00, 0x00, 
  0x00, 0x00, 0x00, 0x00, 0x00, 0x00, 0x00, 0x00, 0x00, 0x00, 0x00, 0x00, 
  0x00, 0x00, 0x00, 0x00, 0x00, 0x00, 0x00, 0x00, 0x00, 0x00, 0x00, 0x00, 
  0x00, 0x00, 0x00, 0x00, 0x00, 0x00, 0x00, 0x00, 0x00, 0x00, 0x00, 0x00, 
  0x08, 0x00, 0x00, 0x00, 0x91, 0x9b, 0x93, 0x37, 0x63, 0xb6, 0x8b, 0x37, 
  0xa8, 0x9a, 0xba, 0x37, 0x3d, 0xe8, 0xea, 0x37, 0xc5, 0xe4, 0x81, 0x37, 
  0x2b, 0xde, 0x01, 0x38, 0x5b, 0xf8, 0xd7, 0x37, 0xcb, 0xcd, 0x78, 0x37, 
  0x30, 0x00, 0x00, 0x00, 0x6d, 0x6f, 0x64, 0x65, 0x6c, 0x5f, 0x33, 0x2f, 
  0x63, 0x6f, 0x6e, 0x76, 0x32, 0x64, 0x5f, 0x39, 0x2f, 0x42, 0x69, 0x61, 
  0x73, 0x41, 0x64, 0x64, 0x2f, 0x52, 0x65, 0x61, 0x64, 0x56, 0x61, 0x72, 
  0x69, 0x61, 0x62, 0x6c, 0x65, 0x4f, 0x70, 0x2f, 0x72, 0x65, 0x73, 0x6f, 
  0x75, 0x72, 0x63, 0x65, 0x00, 0x00, 0x00, 0x00, 0x01, 0x00, 0x00, 0x00, 
  0x08, 0x00, 0x00, 0x00, 0xa2, 0xf8, 0xff, 0xff, 0x00, 0x00, 0x00, 0x01, 
  0x14, 0x00, 0x00, 0x00, 0xe8, 0x00, 0x00, 0x00, 0x08, 0x00, 0x00, 0x00, 
  0x00, 0x00, 0x00, 0x09, 0xfc, 0x00, 0x00, 0x00, 0x8c, 0xf8, 0xff, 0xff, 
  0x08, 0x00, 0x00, 0x00, 0x8c, 0x00, 0x00, 0x00, 0x10, 0x00, 0x00, 0x00, 
  0x00, 0x00, 0x00, 0x00, 0x00, 0x00, 0x00, 0x00, 0x00, 0x00, 0x00, 0x00, 
  0x00, 0x00, 0x00, 0x00, 0x00, 0x00, 0x00, 0x00, 0x00, 0x00, 0x00, 0x00, 
  0x00, 0x00, 0x00, 0x00, 0x00, 0x00, 0x00, 0x00, 0x00, 0x00, 0x00, 0x00, 
  0x00, 0x00, 0x00, 0x00, 0x00, 0x00, 0x00, 0x00, 0x00, 0x00, 0x00, 0x00, 
  0x00, 0x00, 0x00, 0x00, 0x00, 0x00, 0x00, 0x00, 0x00, 0x00, 0x00, 0x00, 
  0x00, 0x00, 0x00, 0x00, 0x00, 0x00, 0x00, 0x00, 0x00, 0x00, 0x00, 0x00, 
  0x00, 0x00, 0x00, 0x00, 0x00, 0x00, 0x00, 0x00, 0x00, 0x00, 0x00, 0x00, 
  0x00, 0x00, 0x00, 0x00, 0x00, 0x00, 0x00, 0x00, 0x00, 0x00, 0x00, 0x00, 
  0x00, 0x00, 0x00, 0x00, 0x00, 0x00, 0x00, 0x00, 0x00, 0x00, 0x00, 0x00, 
  0x00, 0x00, 0x00, 0x00, 0x00, 0x00, 0x00, 0x00, 0x00, 0x00, 0x00, 0x00, 
  0x00, 0x00, 0x00, 0x00, 0x00, 0x00, 0x00, 0x00, 0x00, 0x00, 0x00, 0x00, 
  0x10, 0x00, 0x00, 0x00, 0xde, 0x44, 0x99, 0x3b, 0x9f, 0xa3, 0xa7, 0x3b, 
  0x4a, 0x60, 0x91, 0x3b, 0x9d, 0x46, 0x98, 0x3b, 0x69, 0x68, 0x8b, 0x3b, 
  0x9c, 0x54, 0xc0, 0x3b, 0xa6, 0x88, 0xb2, 0x3b, 0xd2, 0x63, 0x8d, 0x3b, 
  0x3c, 0xc2, 0xa8, 0x3b, 0x5c, 0x79, 0xac, 0x3b, 0x23, 0xac, 0xb1, 0x3b, 
  0x5c, 0x21, 0xbd, 0x3b, 0x01, 0xe5, 0xb4, 0x3b, 0x07, 0xf1, 0x9a, 0x3b, 
  0x87, 0x0c, 0x8b, 0x3b, 0x33, 0xe9, 0x84, 0x3b, 0x18, 0x00, 0x00, 0x00, 
  0x6d, 0x6f, 0x64, 0x65, 0x6c, 0x5f, 0x33, 0x2f, 0x63, 0x6f, 0x6e, 0x76, 
  0x32, 0x64, 0x5f, 0x31, 0x30, 0x2f, 0x43, 0x6f, 0x6e, 0x76, 0x32, 0x44, 
  0x00, 0x00, 0x00, 0x00, 0x04, 0x00, 0x00, 0x00, 0x10, 0x00, 0x00, 0x00, 
  0x03, 0x00, 0x00, 0x00, 0x03, 0x00, 0x00, 0x00, 0x08, 0x00, 0x00, 0x00, 
  0xca, 0xf9, 0xff, 0xff, 0x00, 0x00, 0x00, 0x01, 0x14, 0x00, 0x00, 0x00, 
  0xe4, 0x00, 0x00, 0x00, 0x07, 0x00, 0x00, 0x00, 0x00, 0x00, 0x00, 0x02, 
  0x10, 0x01, 0x00, 0x00, 0xb4, 0xf9, 0xff, 0xff, 0x08, 0x00, 0x00, 0x00, 
  0x88, 0x00, 0x00, 0x00, 0x10, 0x00, 0x00, 0x00, 0x00, 0x00, 0x00, 0x00, 
  0x00, 0x00, 0x00, 0x00, 0x00, 0x00, 0x00, 0x00, 0x00, 0x00, 0x00, 0x00, 
  0x00, 0x00, 0x00, 0x00, 0x00, 0x00, 0x00, 0x00, 0x00, 0x00, 0x00, 0x00, 
  0x00, 0x00, 0x00, 0x00, 0x00, 0x00, 0x00, 0x00, 0x00, 0x00, 0x00, 0x00, 
  0x00, 0x00, 0x00, 0x00, 0x00, 0x00, 0x00, 0x00, 0x00, 0x00, 0x00, 0x00, 
  0x00, 0x00, 0x00, 0x00, 0x00, 0x00, 0x00, 0x00, 0x00, 0x00, 0x00, 0x00, 
  0x00, 0x00, 0x00, 0x00, 0x00, 0x00, 0x00, 0x00, 0x00, 0x00, 0x00, 0x00, 
  0x00, 0x00, 0x00, 0x00, 0x00, 0x00, 0x00, 0x00, 0x00, 0x00, 0x00, 0x00, 
  0x00, 0x00, 0x00, 0x00, 0x00, 0x00, 0x00, 0x00, 0x00, 0x00, 0x00, 0x00, 
  0x00, 0x00, 0x00, 0x00, 0x00, 0x00, 0x00, 0x00, 0x00, 0x00, 0x00, 0x00, 
  0x00, 0x00, 0x00, 0x00, 0x00, 0x00, 0x00, 0x00, 0x00, 0x00, 0x00, 0x00, 
  0x00, 0x00, 0x00, 0x00, 0x10, 0x00, 0x00, 0x00, 0xec, 0x68, 0x9b, 0x38, 
  0x10, 0xfb, 0xa9, 0x38, 0x1f, 0x68, 0x93, 0x38, 0x1e, 0x67, 0x9a, 0x38, 
  0xe7, 0x5a, 0x8d, 0x38, 0x57, 0x04, 0xc3, 0x38, 0x0c, 0x07, 0xb5, 0x38, 
  0x66, 0x5d, 0x8f, 0x38, 0xad, 0x1d, 0xab, 0x38, 0x16, 0xe2, 0xae, 0x38, 
  0x74, 0x27, 0xb4, 0x38, 0xa6, 0xc5, 0xbf, 0x38, 0xd8, 0x6b, 0xb7, 0x38, 
  0x10, 0x1b, 0x9d, 0x38, 0xbc, 0xfd, 0x8c, 0x38, 0x75, 0xc4, 0x86, 0x38, 
  0x31, 0x00, 0x00, 0x00, 0x6d, 0x6f, 0x64, 0x65, 0x6c, 0x5f, 0x33, 0x2f, 
  0x63, 0x6f, 0x6e, 0x76, 0x32, 0x64, 0x5f, 0x31, 0x30, 0x2f, 0x42, 0x69, 
  0x61, 0x73, 0x41, 0x64, 0x64, 0x2f, 0x52, 0x65, 0x61, 0x64, 0x56, 0x61, 
  0x72, 0x69, 0x61, 0x62, 0x6c, 0x65, 0x4f, 0x70, 0x2f, 0x72, 0x65, 0x73, 
  0x6f, 0x75, 0x72, 0x63, 0x65, 0x00, 0x00, 0x00, 0x01, 0x00, 0x00, 0x00, 
  0x10, 0x00, 0x00, 0x00, 0xfa, 0xfa, 0xff, 0xff, 0x00, 0x00, 0x00, 0x01, 
  0x14, 0x00, 0x00, 0x00, 0xa8, 0x01, 0x00, 0x00, 0x06, 0x00, 0x00, 0x00, 
  0x00, 0x00, 0x00, 0x09, 0xbc, 0x01, 0x00, 0x00, 0xe4, 0xfa, 0xff, 0xff, 
  0x08, 0x00, 0x00, 0x00, 0x0c, 0x01, 0x00, 0x00, 0x20, 0x00, 0x00, 0x00, 
  0x00, 0x00, 0x00, 0x00, 0x00, 0x00, 0x00, 0x00, 0x00, 0x00, 0x00, 0x00, 
  0x00, 0x00, 0x00, 0x00, 0x00, 0x00, 0x00, 0x00, 0x00, 0x00, 0x00, 0x00, 
  0x00, 0x00, 0x00, 0x00, 0x00, 0x00, 0x00, 0x00, 0x00, 0x00, 0x00, 0x00, 
  0x00, 0x00, 0x00, 0x00, 0x00, 0x00, 0x00, 0x00, 0x00, 0x00, 0x00, 0x00, 
  0x00, 0x00, 0x00, 0x00, 0x00, 0x00, 0x00, 0x00, 0x00, 0x00, 0x00, 0x00, 
  0x00, 0x00, 0x00, 0x00, 0x00, 0x00, 0x00, 0x00, 0x00, 0x00, 0x00, 0x00, 
  0x00, 0x00, 0x00, 0x00, 0x00, 0x00, 0x00, 0x00, 0x00, 0x00, 0x00, 0x00, 
  0x00, 0x00, 0x00, 0x00, 0x00, 0x00, 0x00, 0x00, 0x00, 0x00, 0x00, 0x00, 
  0x00, 0x00, 0x00, 0x00, 0x00, 0x00, 0x00, 0x00, 0x00, 0x00, 0x00, 0x00, 
  0x00, 0x00, 0x00, 0x00, 0x00, 0x00, 0x00, 0x00, 0x00, 0x00, 0x00, 0x00, 
  0x00, 0x00, 0x00, 0x00, 0x00, 0x00, 0x00, 0x00, 0x00, 0x00, 0x00, 0x00, 
  0x00, 0x00, 0x00, 0x00, 0x00, 0x00, 0x00, 0x00, 0x00, 0x00, 0x00, 0x00, 
  0x00, 0x00, 0x00, 0x00, 0x00, 0x00, 0x00, 0x00, 0x00, 0x00, 0x00, 0x00, 
  0x00, 0x00, 0x00, 0x00, 0x00, 0x00, 0x00, 0x00, 0x00, 0x00, 0x00, 0x00, 
  0x00, 0x00, 0x00, 0x00, 0x00, 0x00, 0x00, 0x00, 0x00, 0x00, 0x00, 0x00, 
  0x00, 0x00, 0x00, 0x00, 0x00, 0x00, 0x00, 0x00, 0x00, 0x00, 0x00, 0x00, 
  0x00, 0x00, 0x00, 0x00, 0x00, 0x00, 0x00, 0x00, 0x00, 0x00, 0x00, 0x00, 
  0x00, 0x00, 0x00, 0x00, 0x00, 0x00, 0x00, 0x00, 0x00, 0x00, 0x00, 0x00, 
  0x00, 0x00, 0x00, 0x00, 0x00, 0x00, 0x00, 0x00, 0x00, 0x00, 0x00, 0x00, 
  0x00, 0x00, 0x00, 0x00, 0x00, 0x00, 0x00, 0x00, 0x00, 0x00, 0x00, 0x00, 
  0x00, 0x00, 0x00, 0x00, 0x00, 0x00, 0x00, 0x00, 0x00, 0x00, 0x00, 0x00, 
  0x00, 0x00, 0x00, 0x00, 0x00, 0x00, 0x00, 0x00, 0x20, 0x00, 0x00, 0x00, 
  0x82, 0xa1, 0x87, 0x3b, 0x24, 0x14, 0x68, 0x3b, 0x55, 0xed, 0x6d, 0x3b, 
  0x41, 0xc1, 0x34, 0x3b, 0x75, 0x54, 0x82, 0x3b, 0x0a, 0xe5, 0x7c, 0x3b, 
  0x86, 0x45, 0x5d, 0x3b, 0x18, 0xc4, 0x0d, 0x3b, 0x20, 0xb1, 0x91, 0x3b, 
  0x67, 0x70, 0x98, 0x3b, 0x98, 0xb3, 0x6c, 0x3b, 0x35, 0xa1, 0x5f, 0x3b, 
  0x5a, 0xa4, 0x5f, 0x3b, 0xa3, 0x96, 0x6a, 0x3b, 0x44, 0xd3, 0x91, 0x3b, 
  0xd5, 0x81, 0x51, 0x3b, 0x5f, 0x00, 0x89, 0x3b, 0xaf, 0x3b, 0x85, 0x3b, 
  0x30, 0xea, 0x1b, 0x3b, 0xfb, 0x83, 0x5b, 0x3b, 0x9f, 0xde, 0x30, 0x3b, 
  0x07, 0x7d, 0x34, 0x3b, 0x5e, 0xca, 0x27, 0x3b, 0xc8, 0xe1, 0x39, 0x3b, 
  0x80, 0xb9, 0x9a, 0x3b, 0xd3, 0x2d, 0x3e, 0x3b, 0x0b, 0x79, 0x32, 0x3b, 
  0xd2, 0x4c, 0x60, 0x3b, 0x68, 0x5d, 0x47, 0x3b, 0x6b, 0x54, 0x36, 0x3b, 
  0x21, 0x7e, 0x73, 0x3b, 0xb4, 0x7c, 0x3f, 0x3b, 0x18, 0x00, 0x00, 0x00, 
  0x6d, 0x6f, 0x64, 0x65, 0x6c, 0x5f, 0x33, 0x2f, 0x63, 0x6f, 0x6e, 0x76, 
  0x32, 0x64, 0x5f, 0x31, 0x31, 0x2f, 0x43, 0x6f, 0x6e, 0x76, 0x32, 0x44, 
  0x00, 0x00, 0x00, 0x00, 0x04, 0x00, 0x00, 0x00, 0x20, 0x00, 0x00, 0x00, 
  0x03, 0x00, 0x00, 0x00, 0x03, 0x00, 0x00, 0x00, 0x10, 0x00, 0x00, 0x00, 
  0xe2, 0xfc, 0xff, 0xff, 0x00, 0x00, 0x00, 0x01, 0x14, 0x00, 0x00, 0x00, 
  0xa4, 0x01, 0x00, 0x00, 0x05, 0x00, 0x00, 0x00, 0x00, 0x00, 0x00, 0x02, 
  0xd0, 0x01, 0x00, 0x00, 0xcc, 0xfc, 0xff, 0xff, 0x08, 0x00, 0x00, 0x00, 
  0x08, 0x01, 0x00, 0x00, 0x20, 0x00, 0x00, 0x00, 0x00, 0x00, 0x00, 0x00, 
  0x00, 0x00, 0x00, 0x00, 0x00, 0x00, 0x00, 0x00, 0x00, 0x00, 0x00, 0x00, 
  0x00, 0x00, 0x00, 0x00, 0x00, 0x00, 0x00, 0x00, 0x00, 0x00, 0x00, 0x00, 
  0x00, 0x00, 0x00, 0x00, 0x00, 0x00, 0x00, 0x00, 0x00, 0x00, 0x00, 0x00, 
  0x00, 0x00, 0x00, 0x00, 0x00, 0x00, 0x00, 0x00, 0x00, 0x00, 0x00, 0x00, 
  0x00, 0x00, 0x00, 0x00, 0x00, 0x00, 0x00, 0x00, 0x00, 0x00, 0x00, 0x00, 
  0x00, 0x00, 0x00, 0x00, 0x00, 0x00, 0x00, 0x00, 0x00, 0x00, 0x00, 0x00, 
  0x00, 0x00, 0x00, 0x00, 0x00, 0x00, 0x00, 0x00, 0x00, 0x00, 0x00, 0x00, 
  0x00, 0x00, 0x00, 0x00, 0x00, 0x00, 0x00, 0x00, 0x00, 0x00, 0x00, 0x00, 
  0x00, 0x00, 0x00, 0x00, 0x00, 0x00, 0x00, 0x00, 0x00, 0x00, 0x00, 0x00, 
  0x00, 0x00, 0x00, 0x00, 0x00, 0x00, 0x00, 0x00, 0x00, 0x00, 0x00, 0x00, 
  0x00, 0x00, 0x00, 0x00, 0x00, 0x00, 0x00, 0x00, 0x00, 0x00, 0x00, 0x00, 
  0x00, 0x00, 0x00, 0x00, 0x00, 0x00, 0x00, 0x00, 0x00, 0x00, 0x00, 0x00, 
  0x00, 0x00, 0x00, 0x00, 0x00, 0x00, 0x00, 0x00, 0x00, 0x00, 0x00, 0x00, 
  0x00, 0x00, 0x00, 0x00, 0x00, 0x00, 0x00, 0x00, 0x00, 0x00, 0x00, 0x00, 
  0x00, 0x00, 0x00, 0x00, 0x00, 0x00, 0x00, 0x00, 0x00, 0x00, 0x00, 0x00, 
  0x00, 0x00, 0x00, 0x00, 0x00, 0x00, 0x00, 0x00, 0x00, 0x00, 0x00, 0x00, 
  0x00, 0x00, 0x00, 0x00, 0x00, 0x00, 0x00, 0x00, 0x00, 0x00, 0x00, 0x00, 
  0x00, 0x00, 0x00, 0x00, 0x00, 0x00, 0x00, 0x00, 0x00, 0x00, 0x00, 0x00, 
  0x00, 0x00, 0x00, 0x00, 0x00, 0x00, 0x00, 0x00, 0x00, 0x00, 0x00, 0x00, 
  0x00, 0x00, 0x00, 0x00, 0x00, 0x00, 0x00, 0x00, 0x00, 0x00, 0x00, 0x00, 
  0x00, 0x00, 0x00, 0x00, 0x00, 0x00, 0x00, 0x00, 0x00, 0x00, 0x00, 0x00, 
  0x20, 0x00, 0x00, 0x00, 0xd6, 0x1c, 0x3e, 0x39, 0xbe, 0xa6, 0x22, 0x39, 
  0x0a, 0xc0, 0x26, 0x39, 0xd1, 0x5c, 0xfd, 0x38, 0xab, 0xae, 0x36, 0x39, 
  0x7a, 0x3d, 0x31, 0x39, 0xc5, 0x13, 0x1b, 0x39, 0x50, 0xb6, 0xc6, 0x38, 
  0x0e, 0x37, 0x4c, 0x39, 0x2a, 0xac, 0x55, 0x39, 0x29, 0xe4, 0x25, 0x39, 
  0xdc, 0xba, 0x1c, 0x39, 0x10, 0xbd, 0x1c, 0x39, 0x08, 0x69, 0x24, 0x39, 
  0xe9, 0x66, 0x4c, 0x39, 0x0a, 0xd5, 0x12, 0x39, 0xa3, 0x08, 0x40, 0x39, 
  0x72, 0xc0, 0x3a, 0x39, 0x5f, 0x8b, 0xda, 0x38, 0xb5, 0xd8, 0x19, 0x39, 
  0xa6, 0xea, 0xf7, 0x38, 0x30, 0xfd, 0xfc, 0x38, 0xc3, 0x30, 0xeb, 0x38, 
  0x4a, 0x46, 0x02, 0x39, 0x4b, 0xe0, 0x58, 0x39, 0x40, 0x49, 0x05, 0x39, 
  0xef, 0x29, 0xfa, 0x38, 0x22, 0x33, 0x1d, 0x39, 0x58, 0xb9, 0x0b, 0x39, 
  0xee, 0x91, 0xff, 0x38, 0x9b, 0xa6, 0x2a, 0x39, 0xf2, 0x33, 0x06, 0x39, 
  0x31, 0x00, 0x00, 0x00, 0x6d, 0x6f, 0x64, 0x65, 0x6c, 0x5f, 0x33, 0x2f, 
  0x63, 0x6f, 0x6e, 0x76, 0x32, 0x64, 0x5f, 0x31, 0x31, 0x2f, 0x42, 0x69, 
  0x61, 0x73, 0x41, 0x64, 0x64, 0x2f, 0x52, 0x65, 0x61, 0x64, 0x56, 0x61, 
  0x72, 0x69, 0x61, 0x62, 0x6c, 0x65, 0x4f, 0x70, 0x2f, 0x72, 0x65, 0x73, 
  0x6f, 0x75, 0x72, 0x63, 0x65, 0x00, 0x00, 0x00, 0x01, 0x00, 0x00, 0x00, 
  0x20, 0x00, 0x00, 0x00, 0xd2, 0xfe, 0xff, 0xff, 0x00, 0x00, 0x00, 0x01, 
  0x14, 0x00, 0x00, 0x00, 0x34, 0x00, 0x00, 0x00, 0x04, 0x00, 0x00, 0x00, 
  0x00, 0x00, 0x00, 0x09, 0x44, 0x00, 0x00, 0x00, 0xbc, 0xfe, 0xff, 0xff, 
  0x08, 0x00, 0x00, 0x00, 0x14, 0x00, 0x00, 0x00, 0x01, 0x00, 0x00, 0x00, 
  0x00, 0x00, 0x00, 0x00, 0x00, 0x00, 0x00, 0x00, 0x00, 0x00, 0x00, 0x00, 
  0x01, 0x00, 0x00, 0x00, 0xf2, 0xfd, 0xaa, 0x3b, 0x16, 0x00, 0x00, 0x00, 
  0x6d, 0x6f, 0x64, 0x65, 0x6c, 0x5f, 0x33, 0x2f, 0x64, 0x65, 0x6e, 0x73, 
  0x65, 0x5f, 0x33, 0x2f, 0x4d, 0x61, 0x74, 0x4d, 0x75, 0x6c, 0x00, 0x00, 
  0x02, 0x00, 0x00, 0x00, 0x0a, 0x00, 0x00, 0x00, 0x00, 0x02, 0x00, 0x00, 
  0x3a, 0xff, 0xff, 0xff, 0x00, 0x00, 0x00, 0x01, 0x14, 0x00, 0x00, 0x00, 
  0x34, 0x00, 0x00, 0x00, 0x03, 0x00, 0x00, 0x00, 0x00, 0x00, 0x00, 0x02, 
  0x5c, 0x00, 0x00, 0x00, 0x24, 0xff, 0xff, 0xff, 0x08, 0x00, 0x00, 0x00, 
  0x14, 0x00, 0x00, 0x00, 0x01, 0x00, 0x00, 0x00, 0x00, 0x00, 0x00, 0x00, 
  0x00, 0x00, 0x00, 0x00, 0x00, 0x00, 0x00, 0x00, 0x01, 0x00, 0x00, 0x00, 
  0x54, 0xfe, 0x29, 0x3a, 0x2f, 0x00, 0x00, 0x00, 0x6d, 0x6f, 0x64, 0x65, 
  0x6c, 0x5f, 0x33, 0x2f, 0x64, 0x65, 0x6e, 0x73, 0x65, 0x5f, 0x33, 0x2f, 
  0x42, 0x69, 0x61, 0x73, 0x41, 0x64, 0x64, 0x2f, 0x52, 0x65, 0x61, 0x64, 
  0x56, 0x61, 0x72, 0x69, 0x61, 0x62, 0x6c, 0x65, 0x4f, 0x70, 0x2f, 0x72, 
  0x65, 0x73, 0x6f, 0x75, 0x72, 0x63, 0x65, 0x00, 0x01, 0x00, 0x00, 0x00, 
  0x0a, 0x00, 0x00, 0x00, 0xb6, 0xff, 0xff, 0xff, 0x00, 0x00, 0x00, 0x01, 
  0x18, 0x00, 0x00, 0x00, 0x18, 0x00, 0x00, 0x00, 0x02, 0x00, 0x00, 0x00, 
  0x00, 0x00, 0x00, 0x02, 0x28, 0x00, 0x00, 0x00, 0x04, 0x00, 0x04, 0x00, 
  0x04, 0x00, 0x00, 0x00, 0x17, 0x00, 0x00, 0x00, 0x6d, 0x6f, 0x64, 0x65, 
  0x6c, 0x5f, 0x33, 0x2f, 0x66, 0x6c, 0x61, 0x74, 0x74, 0x65, 0x6e, 0x5f, 
  0x33, 0x2f, 0x43, 0x6f, 0x6e, 0x73, 0x74, 0x00, 0x01, 0x00, 0x00, 0x00, 
  0x02, 0x00, 0x00, 0x00, 0x00, 0x00, 0x16, 0x00, 0x1c, 0x00, 0x18, 0x00, 
  0x17, 0x00, 0x10, 0x00, 0x0c, 0x00, 0x08, 0x00, 0x00, 0x00, 0x00, 0x00, 
  0x00, 0x00, 0x07, 0x00, 0x16, 0x00, 0x00, 0x00, 0x00, 0x00, 0x00, 0x01, 
  0x20, 0x00, 0x00, 0x00, 0x40, 0x00, 0x00, 0x00, 0x01, 0x00, 0x00, 0x00, 
  0x00, 0x00, 0x00, 0x09, 0x3c, 0x00, 0x00, 0x00, 0x0c, 0x00, 0x0c, 0x00, 
  0x00, 0x00, 0x00, 0x00, 0x08, 0x00, 0x04, 0x00, 0x0c, 0x00, 0x00, 0x00, 
  0x08, 0x00, 0x00, 0x00, 0x14, 0x00, 0x00, 0x00, 0x01, 0x00, 0x00, 0x00, 
  0x80, 0xff, 0xff, 0xff, 0xff, 0xff, 0xff, 0xff, 0x00, 0x00, 0x00, 0x00, 
  0x01, 0x00, 0x00, 0x00, 0x00, 0x00, 0x80, 0x3f, 0x01, 0x00, 0x00, 0x00, 
  0x78, 0x00, 0x00, 0x00, 0x04, 0x00, 0x00, 0x00, 0x01, 0x00, 0x00, 0x00, 
  0x20, 0x00, 0x00, 0x00, 0x20, 0x00, 0x00, 0x00, 0x03, 0x00, 0x00, 0x00, 
  0x04, 0x00, 0x00, 0x00, 0x54, 0x00, 0x00, 0x00, 0x38, 0x00, 0x00, 0x00, 
  0x18, 0x00, 0x00, 0x00, 0x04, 0x00, 0x00, 0x00, 0xc8, 0xff, 0xff, 0xff, 
  0x19, 0x00, 0x00, 0x00, 0x02, 0x00, 0x00, 0x00, 0x00, 0x00, 0x00, 0x19, 
  0xd8, 0xff, 0xff, 0xff, 0x09, 0x00, 0x00, 0x00, 0x04, 0x00, 0x00, 0x00, 
  0x00, 0x00, 0x00, 0x09, 0x0c, 0x00, 0x0c, 0x00, 0x0b, 0x00, 0x00, 0x00, 
  0x00, 0x00, 0x04, 0x00, 0x0c, 0x00, 0x00, 0x00, 0x16, 0x00, 0x00, 0x00, 
